{
  "version": "1.0",
  "truncation": null,
  "padding": null,
  "added_tokens": [
    {
      "id": 0,
      "content": "<PAD>",
      "single_word": false,
      "lstrip": false,
      "rstrip": false,
      "normalized": false,
      "special": true
    },
    {
      "id": 1,
      "content": "<BOS>",
      "single_word": false,
      "lstrip": false,
      "rstrip": false,
      "normalized": false,
      "special": true
    },
    {
      "id": 2,
      "content": "<EOS>",
      "single_word": false,
      "lstrip": false,
      "rstrip": false,
      "normalized": false,
      "special": true
    },
    {
      "id": 3,
      "content": "<UNK>",
      "single_word": false,
      "lstrip": false,
      "rstrip": false,
      "normalized": false,
      "special": true
    }
  ],
  "normalizer": {
    "type": "NFC"
  },
  "pre_tokenizer": {
    "type": "ByteLevel",
    "add_prefix_space": false,
    "trim_offsets": true,
    "use_regex": true
  },
  "post_processor": null,
  "decoder": {
    "type": "ByteLevel",
    "add_prefix_space": true,
    "trim_offsets": true,
    "use_regex": true
  },
  "model": {
    "type": "BPE",
    "dropout": null,
    "unk_token": "<UNK>",
    "continuing_subword_prefix": null,
    "end_of_word_suffix": null,
    "fuse_unk": false,
    "byte_fallback": false,
    "ignore_merges": false,
    "vocab": {
      "<PAD>": 0,
      "<BOS>": 1,
      "<EOS>": 2,
      "<UNK>": 3,
      "!": 4,
      "\"": 5,
      "#": 6,
      "$": 7,
      "%": 8,
      "&": 9,
      "'": 10,
      "(": 11,
      ")": 12,
      "*": 13,
      "+": 14,
      ",": 15,
      "-": 16,
      ".": 17,
      "/": 18,
      "0": 19,
      "1": 20,
      "2": 21,
      "3": 22,
      "4": 23,
      "5": 24,
      "6": 25,
      "7": 26,
      "8": 27,
      "9": 28,
      ":": 29,
      ";": 30,
      "<": 31,
      "=": 32,
      ">": 33,
      "?": 34,
      "@": 35,
      "A": 36,
      "B": 37,
      "C": 38,
      "D": 39,
      "E": 40,
      "F": 41,
      "G": 42,
      "H": 43,
      "I": 44,
      "J": 45,
      "K": 46,
      "L": 47,
      "M": 48,
      "N": 49,
      "O": 50,
      "P": 51,
      "Q": 52,
      "R": 53,
      "S": 54,
      "T": 55,
      "U": 56,
      "V": 57,
      "W": 58,
      "X": 59,
      "Y": 60,
      "Z": 61,
      "[": 62,
      "\\": 63,
      "]": 64,
      "^": 65,
      "_": 66,
      "`": 67,
      "a": 68,
      "b": 69,
      "c": 70,
      "d": 71,
      "e": 72,
      "f": 73,
      "g": 74,
      "h": 75,
      "i": 76,
      "j": 77,
      "k": 78,
      "l": 79,
      "m": 80,
      "n": 81,
      "o": 82,
      "p": 83,
      "q": 84,
      "r": 85,
      "s": 86,
      "t": 87,
      "u": 88,
      "v": 89,
      "w": 90,
      "x": 91,
      "y": 92,
      "z": 93,
      "{": 94,
      "|": 95,
      "}": 96,
      "~": 97,
      "¡": 98,
      "¢": 99,
      "£": 100,
      "¤": 101,
      "¥": 102,
      "¦": 103,
      "§": 104,
      "¨": 105,
      "©": 106,
      "ª": 107,
      "«": 108,
      "¬": 109,
      "®": 110,
      "¯": 111,
      "°": 112,
      "±": 113,
      "²": 114,
      "³": 115,
      "´": 116,
      "µ": 117,
      "¶": 118,
      "·": 119,
      "¸": 120,
      "¹": 121,
      "º": 122,
      "»": 123,
      "¼": 124,
      "½": 125,
      "¾": 126,
      "¿": 127,
      "À": 128,
      "Á": 129,
      "Â": 130,
      "Ã": 131,
      "Ä": 132,
      "Å": 133,
      "Æ": 134,
      "Ç": 135,
      "È": 136,
      "É": 137,
      "Ê": 138,
      "Ë": 139,
      "Ì": 140,
      "Í": 141,
      "Î": 142,
      "Ï": 143,
      "Ð": 144,
      "Ñ": 145,
      "Ò": 146,
      "Ó": 147,
      "Ô": 148,
      "Õ": 149,
      "Ö": 150,
      "×": 151,
      "Ø": 152,
      "Ù": 153,
      "Ú": 154,
      "Û": 155,
      "Ü": 156,
      "Ý": 157,
      "Þ": 158,
      "ß": 159,
      "à": 160,
      "á": 161,
      "â": 162,
      "ã": 163,
      "ä": 164,
      "å": 165,
      "æ": 166,
      "ç": 167,
      "è": 168,
      "é": 169,
      "ê": 170,
      "ë": 171,
      "ì": 172,
      "í": 173,
      "î": 174,
      "ï": 175,
      "ð": 176,
      "ñ": 177,
      "ò": 178,
      "ó": 179,
      "ô": 180,
      "õ": 181,
      "ö": 182,
      "÷": 183,
      "ø": 184,
      "ù": 185,
      "ú": 186,
      "û": 187,
      "ü": 188,
      "ý": 189,
      "þ": 190,
      "ÿ": 191,
      "Ā": 192,
      "ā": 193,
      "Ă": 194,
      "ă": 195,
      "Ą": 196,
      "ą": 197,
      "Ć": 198,
      "ć": 199,
      "Ĉ": 200,
      "ĉ": 201,
      "Ċ": 202,
      "ċ": 203,
      "Č": 204,
      "č": 205,
      "Ď": 206,
      "ď": 207,
      "Đ": 208,
      "đ": 209,
      "Ē": 210,
      "ē": 211,
      "Ĕ": 212,
      "ĕ": 213,
      "Ė": 214,
      "ė": 215,
      "Ę": 216,
      "ę": 217,
      "Ě": 218,
      "ě": 219,
      "Ĝ": 220,
      "ĝ": 221,
      "Ğ": 222,
      "ğ": 223,
      "Ġ": 224,
      "ġ": 225,
      "Ģ": 226,
      "ģ": 227,
      "Ĥ": 228,
      "ĥ": 229,
      "Ħ": 230,
      "ħ": 231,
      "Ĩ": 232,
      "ĩ": 233,
      "Ī": 234,
      "ī": 235,
      "Ĭ": 236,
      "ĭ": 237,
      "Į": 238,
      "į": 239,
      "İ": 240,
      "ı": 241,
      "Ĳ": 242,
      "ĳ": 243,
      "Ĵ": 244,
      "ĵ": 245,
      "Ķ": 246,
      "ķ": 247,
      "ĸ": 248,
      "Ĺ": 249,
      "ĺ": 250,
      "Ļ": 251,
      "ļ": 252,
      "Ľ": 253,
      "ľ": 254,
      "Ŀ": 255,
      "ŀ": 256,
      "Ł": 257,
      "ł": 258,
      "Ń": 259,
      "Ġt": 260,
      "he": 261,
      "Ġa": 262,
      "Ġs": 263,
      "Ġthe": 264,
      "Ġw": 265,
      "nd": 266,
      "in": 267,
      "ed": 268,
      "er": 269,
      "Ġand": 270,
      "Ġb": 271,
      "Ġto": 272,
      "re": 273,
      "Ġo": 274,
      "Ġf": 275,
      "it": 276,
      "Ġh": 277,
      "Ġc": 278,
      "as": 279,
      "ou": 280,
      "at": 281,
      "Ġp": 282,
      "Ġd": 283,
      "ar": 284,
      "is": 285,
      "on": 286,
      "an": 287,
      "Ġm": 288,
      "Ġl": 289,
      "en": 290,
      "ing": 291,
      "or": 292,
      "om": 293,
      "ĠT": 294,
      "Ġhe": 295,
      "Ġwas": 296,
      "es": 297,
      "il": 298,
      "Ġ,": 299,
      "al": 300,
      "ay": 301,
      "Ġin": 302,
      "Ġg": 303,
      "Ġof": 304,
      "id": 305,
      "Ġn": 306,
      "ĠS": 307,
      "Ġth": 308,
      "ad": 309,
      "ĠThe": 310,
      "Ġ.": 311,
      "im": 312,
      "le": 313,
      "ic": 314,
      "ut": 315,
      "ot": 316,
      "et": 317,
      "ĠH": 318,
      "Ġit": 319,
      "ir": 320,
      "Ġ\"": 321,
      "Ġe": 322,
      "Ġsa": 323,
      "el": 324,
      "ow": 325,
      "ver": 326,
      "am": 327,
      "ac": 328,
      "ig": 329,
      "ent": 330,
      "Ġher": 331,
      "Ġon": 332,
      "un": 333,
      "Ġbe": 334,
      "ĠI": 335,
      "Ġst": 336,
      "Ġr": 337,
      "ith": 338,
      "Ġre": 339,
      "ve": 340,
      "ly": 341,
      "Ġwith": 342,
      "ĠHe": 343,
      "ld": 344,
      "ĠShe": 345,
      "ion": 346,
      "Ġha": 347,
      "oo": 348,
      "st": 349,
      "ĠL": 350,
      "Ġthat": 351,
      "Ġy": 352,
      "Ġu": 353,
      "Ġfor": 354,
      "ĠB": 355,
      "ri": 356,
      "pp": 357,
      "ĠThey": 358,
      "Ġhis": 359,
      "ĠA": 360,
      "ĠM": 361,
      "ke": 362,
      "ily": 363,
      "Ġsaid": 364,
      "ur": 365,
      "Ġpl": 366,
      "ked": 367,
      "ted": 368,
      "Ġshe": 369,
      "ce": 370,
      "Ġas": 371,
      "On": 372,
      "Ġwh": 373,
      "Ġso": 374,
      "her": 375,
      "Ġal": 376,
      "ec": 377,
      "ter": 378,
      "Ġyou": 379,
      "Ġis": 380,
      "Ġhad": 381,
      "ol": 382,
      "very": 383,
      "Ġday": 384,
      "se": 385,
      "ul": 386,
      "Ġan": 387,
      "Ġ1": 388,
      "Ġplay": 389,
      "Ġup": 390,
      "ĠC": 391,
      "Ġthey": 392,
      "Ġsh": 393,
      "ch": 394,
      "ould": 395,
      "Ġ@": 396,
      "ĠLily": 397,
      "ro": 398,
      "The": 399,
      "Ġat": 400,
      "Ġnot": 401,
      "ound": 402,
      "Ġk": 403,
      "Ġmom": 404,
      "ain": 405,
      "ht": 406,
      "ere": 407,
      "my": 408,
      "Ġli": 409,
      "ome": 410,
      "Ġne": 411,
      "end": 412,
      "Ġwere": 413,
      "itt": 414,
      "ime": 415,
      "rom": 416,
      "all": 417,
      "'s": 418,
      "ore": 419,
      "ack": 420,
      "ra": 421,
      "Ġbut": 422,
      "Ġse": 423,
      "Ġhapp": 424,
      "ill": 425,
      "ĠJ": 426,
      "Ġwan": 427,
      "Ġtime": 428,
      "um": 429,
      "Ġ'": 430,
      "ard": 431,
      "ĠW": 432,
      "ved": 433,
      "ĠIt": 434,
      "ide": 435,
      "ry": 436,
      "Ġthere": 437,
      "Ġvery": 438,
      "Ġare": 439,
      "Ġdo": 440,
      "ittle": 441,
      "-@": 442,
      "Ġ@-@": 443,
      "ug": 444,
      "Ġlittle": 445,
      "ag": 446,
      "Ġsm": 447,
      "Ġlo": 448,
      "Ġex": 449,
      "th": 450,
      "ĠD": 451,
      "Ġbig": 452,
      "Ġhappy": 453,
      "Ġsp": 454,
      "us": 455,
      "ake": 456,
      "riend": 457,
      "Ġfriend": 458,
      "if": 459,
      "uc": 460,
      "Ġsaw": 461,
      "est": 462,
      "ĠĊ": 463,
      "ĠF": 464,
      "ind": 465,
      "Ġtheir": 466,
      "op": 467,
      "One": 468,
      "ation": 469,
      ".\"": 470,
      "Ġhim": 471,
      "Ġgo": 472,
      "ĠP": 473,
      "Ġby": 474,
      "Ġfrom": 475,
      "Ġj": 476,
      "Ġar": 477,
      "hen": 478,
      "Ġ2": 479,
      "Ġbo": 480,
      "ong": 481,
      "ear": 482,
      "oug": 483,
      "Ġout": 484,
      "Ġloo": 485,
      "and": 486,
      "'t": 487,
      "ame": 488,
      "Ġhave": 489,
      "Ġthem": 490,
      "hed": 491,
      "ers": 492,
      "ĠE": 493,
      "ight": 494,
      "Once": 495,
      "!\"": 496,
      "Ġtoo": 497,
      "way": 498,
      "ĠTim": 499,
      "ĠR": 500,
      "em": 501,
      "Ġcon": 502,
      "ure": 503,
      "ell": 504,
      "Ġcl": 505,
      "Ġv": 506,
      "irl": 507,
      "Ġupon": 508,
      "Ġall": 509,
      "ist": 510,
      "ud": 511,
      "Ġwanted": 512,
      "ĠG": 513,
      "ĠN": 514,
      "Ġch": 515,
      "Ġdid": 516,
      "Ġcould": 517,
      "ood": 518,
      "ab": 519,
      "are": 520,
      "os": 521,
      "Ġgirl": 522,
      "Ġcan": 523,
      "qu": 524,
      "Ġpar": 525,
      "Ġkn": 526,
      "Ġ)": 527,
      "Ġ(": 528,
      "Ġcom": 529,
      "Ġsc": 530,
      "ess": 531,
      "one": 532,
      "ther": 533,
      "own": 534,
      "Ġhel": 535,
      "Ġsmil": 536,
      "ie": 537,
      "unk": 538,
      "Ġman": 539,
      "Ġ19": 540,
      "amed": 541,
      "Ġwent": 542,
      "ate": 543,
      "Ġwor": 544,
      "Ġor": 545,
      "ts": 546,
      "ally": 547,
      "Ġno": 548,
      "oc": 549,
      "ks": 550,
      "ap": 551,
      "ĠBen": 552,
      "ep": 553,
      "Ġhelp": 554,
      "Ġag": 555,
      "Ġstar": 556,
      "Ġback": 557,
      "ast": 558,
      "ade": 559,
      "ak": 560,
      "ust": 561,
      "ies": 562,
      "00": 563,
      "Ġfriends": 564,
      "ice": 565,
      "ree": 566,
      "Ġwould": 567,
      "Ġ<": 568,
      "?\"": 569,
      "ful": 570,
      "Ġnamed": 571,
      "ous": 572,
      "ive": 573,
      "Ġfun": 574,
      "ings": 575,
      "out": 576,
      "You": 577,
      "ber": 578,
      "Ġsome": 579,
      "res": 580,
      "Ġtr": 581,
      "Ġsay": 582,
      "hing": 583,
      "Ġme": 584,
      "elt": 585,
      "Ġwho": 586,
      "Ġfe": 587,
      "Ġab": 588,
      "ant": 589,
      "Ġle": 590,
      "Ġother": 591,
      "ĠOne": 592,
      "Ġwe": 593,
      "side": 594,
      "Ġlike": 595,
      "Ġpr": 596,
      "ird": 597,
      "Ġun": 598,
      "ĠTom": 599,
      "Ġgr": 600,
      "pl": 601,
      "low": 602,
      "ue": 603,
      "ct": 604,
      "Ġfelt": 605,
      "get": 606,
      "ort": 607,
      "Ġaround": 608,
      "Ġloved": 609,
      "ater": 610,
      "Ġmo": 611,
      "ited": 612,
      "Ġbr": 613,
      "Ġtoy": 614,
      "ich": 615,
      "Ġasked": 616,
      "ĠTimmy": 617,
      "Ġsmiled": 618,
      "omet": 619,
      "ick": 620,
      "Ġone": 621,
      "Ġmade": 622,
      "uch": 623,
      "ia": 624,
      "Ġnew": 625,
      "Ġbec": 626,
      "our": 627,
      "fter": 628,
      "ang": 629,
      "Ġwhen": 630,
      "ach": 631,
      "Ġlooked": 632,
      "ial": 633,
      "Ġint": 634,
      "Ġpro": 635,
      "ish": 636,
      "Ġsee": 637,
      "av": 638,
      "Ġagain": 639,
      "Ġcar": 640,
      "Ġboy": 641,
      "ine": 642,
      "ace": 643,
      "Ġde": 644,
      "ub": 645,
      "Ġbird": 646,
      "ated": 647,
      "Ġdec": 648,
      "iv": 649,
      "ough": 650,
      "Ġwhat": 651,
      "Ġsomet": 652,
      "Ġmake": 653,
      "Ġtw": 654,
      "gether": 655,
      "ond": 656,
      "ned": 657,
      "ĠYou": 658,
      "Ġaway": 659,
      "Ġfound": 660,
      "ĠBut": 661,
      "Lily": 662,
      "ity": 663,
      "Ġran": 664,
      "ite": 665,
      "Ġthen": 666,
      "Ġtogether": 667,
      "ip": 668,
      "ew": 669,
      "Ġstarted": 670,
      "Ġro": 671,
      "ĠIn": 672,
      "ĠO": 673,
      "ĠK": 674,
      ",\"": 675,
      "ave": 676,
      "ought": 677,
      "oud": 678,
      "Ġad": 679,
      "ary": 680,
      "âĤ": 681,
      "ass": 682,
      "Ã¢": 683,
      "âĤ¬": 684,
      "Ġmore": 685,
      "Ġput": 686,
      "Ġthan": 687,
      "ried": 688,
      "Ġpark": 689,
      "Ġwant": 690,
      "Ġhome": 691,
      "king": 692,
      "Ġexc": 693,
      "Ġsomething": 694,
      "Ġsays": 695,
      "ared": 696,
      "Ġits": 697,
      "Ġabout": 698,
      "Ġsad": 699,
      "Ġthis": 700,
      "pped": 701,
      "ile": 702,
      "aug": 703,
      "Ġgood": 704,
      "ty": 705,
      "Ġbl": 706,
      "ment": 707,
      "Ġen": 708,
      "Ġover": 709,
      "iz": 710,
      "Ġwhich": 711,
      "oun": 712,
      "Ġpre": 713,
      "ook": 714,
      "Ġinto": 715,
      "hat": 716,
      "ect": 717,
      "ided": 718,
      "irst": 719,
      "Ġdown": 720,
      "ff": 721,
      "Ġhug": 722,
      "Ġco": 723,
      "Ġsw": 724,
      "Ġget": 725,
      "so": 726,
      "ax": 727,
      "Ġplaying": 728,
      "ouse": 729,
      "Ġop": 730,
      "ian": 731,
      "Ġoff": 732,
      "ĠU": 733,
      "Ġwal": 734,
      "ise": 735,
      "na": 736,
      "ny": 737,
      "Ġcont": 738,
      "ire": 739,
      "Ġcame": 740,
      "od": 741,
      "Ġevery": 742,
      "Ġalso": 743,
      "Ġcare": 744,
      "age": 745,
      "Ġim": 746,
      "Ġâ": 747,
      "Ġev": 748,
      "Ġfirst": 749,
      "Ġspec": 750,
      "reat": 751,
      "ĠSt": 752,
      "Ġthings": 753,
      "Ġgot": 754,
      "Ġtwo": 755,
      "ge": 756,
      "Ġus": 757,
      "au": 758,
      "Ġfind": 759,
      "ord": 760,
      "ĠAn": 761,
      "ĠâĢ": 762,
      "pt": 763,
      "Ġdecided": 764,
      "Ġwill": 765,
      "ild": 766,
      "Ġtook": 767,
      "Ġpe": 768,
      "Ġdog": 769,
      "other": 770,
      "Ġliked": 771,
      "here": 772,
      "Ġmy": 773,
      "Ġexcited": 774,
      "Ġ3": 775,
      "Ġhas": 776,
      "ara": 777,
      "Ġbet": 778,
      "Ġfl": 779,
      "Ġyour": 780,
      "uck": 781,
      "Ġfeel": 782,
      "Ġqu": 783,
      "nder": 784,
      "Ġke": 785,
      "ened": 786,
      "oth": 787,
      "ways": 788,
      "Ġac": 789,
      "Ġshow": 790,
      "igh": 791,
      "udd": 792,
      "og": 793,
      "ob": 794,
      "als": 795,
      "Ġstr": 796,
      "ress": 797,
      "Ġinc": 798,
      "ely": 799,
      "Ġany": 800,
      "Ġold": 801,
      "Ġball": 802,
      "oll": 803,
      "Ġhow": 804,
      "Ġdad": 805,
      "able": 806,
      "Ġthought": 807,
      "Ġcomp": 808,
      "Ġbeen": 809,
      "ions": 810,
      "ause": 811,
      "Ġper": 812,
      "Ġscared": 813,
      "ged": 814,
      "ning": 815,
      "mer": 816,
      "Ġalways": 817,
      "ĠCh": 818,
      "ical": 819,
      "Ġdis": 820,
      "Ġapp": 821,
      "Ġte": 822,
      "Ġafter": 823,
      "Ġam": 824,
      "Ġtree": 825,
      "ory": 826,
      "Ġtoys": 827,
      "Ġpo": 828,
      "Ġrun": 829,
      "ance": 830,
      "Ġdidn": 831,
      "They": 832,
      "Ġlear": 833,
      "Ġoutside": 834,
      "oy": 835,
      "ase": 836,
      "Ġtake": 837,
      "ĠMom": 838,
      "Ġyear": 839,
      "orm": 840,
      "Ġwr": 841,
      "Ġknow": 842,
      "Ġlot": 843,
      "ark": 844,
      "Ġend": 845,
      "ft": 846,
      "Ġmuch": 847,
      "Ġ200": 848,
      "Ġrem": 849,
      "Ġpic": 850,
      "atch": 851,
      "Ġcall": 852,
      "Ġmany": 853,
      "Ġho": 854,
      "Ġmommy": 855,
      "Ġbu": 856,
      "ank": 857,
      "ll": 858,
      "ĠTh": 859,
      "Ġlong": 860,
      "Ġcr": 861,
      "hn": 862,
      "Ġspecial": 863,
      "les": 864,
      "ĠJo": 865,
      "Ġ;": 866,
      "ock": 867,
      "ĠSam": 868,
      "ĠV": 869,
      "Ġhand": 870,
      "Ġplayed": 871,
      "ied": 872,
      "ĠMax": 873,
      "Ġcol": 874,
      "Ġbecause": 875,
      "Ġunder": 876,
      "Ġres": 877,
      "Ġsk": 878,
      "ble": 879,
      "Ġhouse": 880,
      "fe": 881,
      "Ġeach": 882,
      "Ġif": 883,
      "ence": 884,
      "ving": 885,
      "Ġfin": 886,
      "led": 887,
      "Ġwater": 888,
      "Ġrec": 889,
      "Ġlaug": 890,
      "Ġsmall": 891,
      "Ġimp": 892,
      "Ġthr": 893,
      "Ġknew": 894,
      "Ġexpl": 895,
      "til": 896,
      "elf": 897,
      "ered": 898,
      "wn": 899,
      "udden": 900,
      "hes": 901,
      "Ġgave": 902,
      "ix": 903,
      "ĠWe": 904,
      "Ġ20": 905,
      "ign": 906,
      "ious": 907,
      "Ġjust": 908,
      "Ġwa": 909,
      "fore": 910,
      "iss": 911,
      "ward": 912,
      "Ġsur": 913,
      "ane": 914,
      "ished": 915,
      "Ġuntil": 916,
      "ans": 917,
      "ump": 918,
      "Ġnever": 919,
      "orry": 920,
      "Ġtold": 921,
      "art": 922,
      "uddenly": 923,
      "ors": 924,
      "ens": 925,
      "ool": 926,
      "Ġsun": 927,
      "Ġgra": 928,
      "ail": 929,
      "Ġ:": 930,
      "ting": 931,
      "fer": 932,
      "gan": 933,
      "bed": 934,
      "Ġwhile": 935,
      "Ġcareful": 936,
      "Ġ18": 937,
      "But": 938,
      "Ġboth": 939,
      "ĠâĢĵ": 940,
      "Ġdes": 941,
      "Ġroom": 942,
      "Ġsorry": 943,
      "anc": 944,
      "act": 945,
      "ollow": 946,
      "Ġtried": 947,
      "pr": 948,
      "Ġinside": 949,
      "Ġneed": 950,
      "ph": 951,
      "ĠHer": 952,
      "uring": 953,
      "vel": 954,
      "up": 955,
      "iver": 956,
      "Ġbefore": 957,
      "Ġ4": 958,
      "Ġatt": 959,
      "Ġlook": 960,
      "man": 961,
      "Ġeat": 962,
      "Ġbest": 963,
      "Ġproud": 964,
      ".@": 965,
      "Ġ@.@": 966,
      "az": 967,
      "ink": 968,
      "Ġheard": 969,
      "Ġcouldn": 970,
      "Ġ5": 971,
      "Ġanim": 972,
      "Ġfam": 973,
      "Ġsl": 974,
      "ised": 975,
      "ren": 976,
      "Ġbox": 977,
      "land": 978,
      "Ġonly": 979,
      "vent": 980,
      "Ġcalled": 981,
      "air": 982,
      "Ġeven": 983,
      "ition": 984,
      "dy": 985,
      "ss": 986,
      "Ġpret": 987,
      "ĠAnd": 988,
      "ople": 989,
      "ĠJack": 990,
      "ons": 991,
      "by": 992,
      "Ġcle": 993,
      "ady": 994,
      "Ġser": 995,
      "ĠEvery": 996,
      "ations": 997,
      "Ġhugged": 998,
      "ĠBr": 999,
      "Tom": 1000,
      "Ġbeing": 1001,
      "ose": 1002,
      "ĠSara": 1003,
      "Ġwhere": 1004,
      "Ġthree": 1005,
      "we": 1006,
      "lud": 1007,
      "Ġbear": 1008,
      "Ġfollow": 1009,
      "ture": 1010,
      "ĠAnna": 1011,
      "arm": 1012,
      "ath": 1013,
      "amp": 1014,
      "Ġway": 1015,
      "ull": 1016,
      "Ġtry": 1017,
      "Ġgame": 1018,
      "Ġcat": 1019,
      "ched": 1020,
      "Ġtur": 1021,
      "Ġred": 1022,
      "Ġstill": 1023,
      "Ġbetter": 1024,
      "Mom": 1025,
      "Ġlet": 1026,
      "ased": 1027,
      "Ġthrough": 1028,
      "ĠSo": 1029,
      "Ġhur": 1030,
      "aking": 1031,
      "Ġpeople": 1032,
      "ĠHis": 1033,
      "self": 1034,
      "ember": 1035,
      "Ġlearned": 1036,
      "xt": 1037,
      "Ġpart": 1038,
      ",@": 1039,
      "Ġ@,@": 1040,
      "Ġnice": 1041,
      "Ġlist": 1042,
      "'m": 1043,
      "Ġsn": 1044,
      "Ġhigh": 1045,
      "Ġfr": 1046,
      "Ġsong": 1047,
      "Ġflow": 1048,
      "gry": 1049,
      "Ġ201": 1050,
      "Ġkind": 1051,
      "aut": 1052,
      "Ġclos": 1053,
      "Ġche": 1054,
      "upp": 1055,
      "Ġear": 1056,
      "Ġdon": 1057,
      "be": 1058,
      "Ġbecame": 1059,
      "ount": 1060,
      "Ġinclud": 1061,
      "Ġdif": 1062,
      "Ġsec": 1063,
      "Ġrel": 1064,
      "Th": 1065,
      "Ġfamily": 1066,
      "ized": 1067,
      "Ġsky": 1068,
      "Ġwork": 1069,
      "Ġfle": 1070,
      "Ġlove": 1071,
      "ĠSp": 1072,
      "Ġinter": 1073,
      "cess": 1074,
      "Ġnow": 1075,
      "Ġused": 1076,
      "iny": 1077,
      "Ġmost": 1078,
      "Yes": 1079,
      "ng": 1080,
      "Ġdra": 1081,
      "Ġcome": 1082,
      "Ġbeaut": 1083,
      "Ġnear": 1084,
      "orn": 1085,
      "Ġjump": 1086,
      "ents": 1087,
      "Ġshould": 1088,
      "Ġgl": 1089,
      "ĠWhen": 1090,
      "Ġhard": 1091,
      "ates": 1092,
      "arden": 1093,
      "ded": 1094,
      "Ġfore": 1095,
      "Ġlived": 1096,
      "He": 1097,
      "per": 1098,
      "Ġthanked": 1099,
      "ĠAs": 1100,
      "ĠFrom": 1101,
      "ĠJohn": 1102,
      "ĠMia": 1103,
      "Ġsing": 1104,
      "Ġwind": 1105,
      "iful": 1106,
      "ired": 1107,
      "ever": 1108,
      "Ġgarden": 1109,
      "Ġlaughed": 1110,
      "Ġanimals": 1111,
      "ves": 1112,
      "aw": 1113,
      "ric": 1114,
      "ames": 1115,
      "ream": 1116,
      "Ġuse": 1117,
      "ange": 1118,
      "It": 1119,
      "Ġbeautiful": 1120,
      "Ġbra": 1121,
      "Ġloud": 1122,
      "ather": 1123,
      "ĠUn": 1124,
      "Ġyears": 1125,
      "Ġreal": 1126,
      "Ġset": 1127,
      "Ġperf": 1128,
      "Ġ6": 1129,
      "Ġstay": 1130,
      "outh": 1131,
      "Ġdoll": 1132,
      "ĠAl": 1133,
      "Ġmus": 1134,
      "ma": 1135,
      "Ġmon": 1136,
      "ins": 1137,
      "Ġlots": 1138,
      "Ġact": 1139,
      "Ġcomm": 1140,
      "Ġground": 1141,
      "Ġnod": 1142,
      "Ġhead": 1143,
      "Ġnext": 1144,
      "duc": 1145,
      "Ġown": 1146,
      "Åĵ": 1147,
      "red": 1148,
      "Ġbad": 1149,
      "ilm": 1150,
      "Ġfly": 1151,
      "Ġbel": 1152,
      "Ġcent": 1153,
      "rew": 1154,
      "iel": 1155,
      "Ġide": 1156,
      "Ġrep": 1157,
      "oin": 1158,
      "Ġsoon": 1159,
      "akes": 1160,
      "Ġgreat": 1161,
      "Ġsafe": 1162,
      "ucy": 1163,
      "ĠThis": 1164,
      "Ġbegan": 1165,
      "Ġ7": 1166,
      "ĠThen": 1167,
      "When": 1168,
      "Ġrepl": 1169,
      "Tim": 1170,
      "Ġsuch": 1171,
      "Ġopened": 1172,
      "ope": 1173,
      "Ġbro": 1174,
      "Ġgoing": 1175,
      "Ġclean": 1176,
      "Ġlater": 1177,
      "Ġdiffer": 1178,
      "bit": 1179,
      "ular": 1180,
      "Ġflew": 1181,
      "ained": 1182,
      "ult": 1183,
      "Ġshare": 1184,
      "ason": 1185,
      "Ġtre": 1186,
      "Ġey": 1187,
      "kay": 1188,
      "ued": 1189,
      "Ġwalked": 1190,
      "ĠÃ¢": 1191,
      "Ġplace": 1192,
      "Ġkeep": 1193,
      "Ġfo": 1194,
      "me": 1195,
      "Ġnum": 1196,
      "Ġret": 1197,
      "imes": 1198,
      "Ġdel": 1199,
      "Ġbrave": 1200,
      "Ġsurpr": 1201,
      "Ġright": 1202,
      "Ġstrong": 1203,
      "illy": 1204,
      "Ġele": 1205,
      "Ġkept": 1206,
      "tion": 1207,
      "Ġhurt": 1208,
      "ton": 1209,
      "ey": 1210,
      "Ġ9": 1211,
      "Ġcons": 1212,
      "Ġchild": 1213,
      "der": 1214,
      "uff": 1215,
      "Ġduring": 1216,
      "Ġangry": 1217,
      "Ġcontin": 1218,
      "Ġ8": 1219,
      "ubl": 1220,
      "ĠMar": 1221,
      "ĠY": 1222,
      "Ġsto": 1223,
      "ib": 1224,
      "Let": 1225,
      "ween": 1226,
      "Ġfast": 1227,
      "Ġacc": 1228,
      "Ġmet": 1229,
      "Ġimport": 1230,
      "Ġfilm": 1231,
      "In": 1232,
      "oup": 1233,
      "Ġidea": 1234,
      "Ġsound": 1235,
      "lease": 1236,
      "thing": 1237,
      "Ġadvent": 1238,
      "Ġclim": 1239,
      "tern": 1240,
      "ross": 1241,
      "Ġpretty": 1242,
      "Ġstory": 1243,
      "ached": 1244,
      "ummy": 1245,
      "Ġnoise": 1246,
      "ĠCan": 1247,
      "Ġshiny": 1248,
      "ven": 1249,
      "Ben": 1250,
      "Ġmag": 1251,
      "Ġchar": 1252,
      "Ġdifferent": 1253,
      "orth": 1254,
      "oon": 1255,
      "str": 1256,
      "Ġcry": 1257,
      "ield": 1258,
      "Ġlar": 1259,
      "ters": 1260,
      "Ġbetween": 1261,
      "ier": 1262,
      "Ġrecord": 1263,
      "Ġdoor": 1264,
      "ash": 1265,
      "ision": 1266,
      "ee": 1267,
      "hip": 1268,
      "Ġexplore": 1269,
      "Ġworld": 1270,
      "cc": 1271,
      "Ġrest": 1272,
      "Ġfeeling": 1273,
      "Ġever": 1274,
      "Ġname": 1275,
      "uri": 1276,
      "att": 1277,
      "ĠAr": 1278,
      "iew": 1279,
      "Ġmar": 1280,
      "uit": 1281,
      "Ġbook": 1282,
      "Ġbuild": 1283,
      "ational": 1284,
      "Ġprom": 1285,
      "Ġbed": 1286,
      "Ġimportant": 1287,
      "Ġgive": 1288,
      "Ġfood": 1289,
      "Ġpicked": 1290,
      "Ġpos": 1291,
      "ĠLucy": 1292,
      "br": 1293,
      "ener": 1294,
      "Ġreg": 1295,
      "ient": 1296,
      "âĤ¬â": 1297,
      "Ġfar": 1298,
      "Ġtal": 1299,
      "Ġbre": 1300,
      "Ġem": 1301,
      "Ġpicture": 1302,
      "ocks": 1303,
      "Ġnodded": 1304,
      "What": 1305,
      "Ġair": 1306,
      "ner": 1307,
      "Ġplan": 1308,
      "Ġdr": 1309,
      "oice": 1310,
      "ĠAfter": 1311,
      "Ġanother": 1312,
      "Ġquick": 1313,
      "joy": 1314,
      "Ġloc": 1315,
      "iced": 1316,
      "iet": 1317,
      "Ġopen": 1318,
      "ident": 1319,
      "ĠBob": 1320,
      "ont": 1321,
      "ual": 1322,
      "Ġpres": 1323,
      "enc": 1324,
      "Ġpoin": 1325,
      "Ġblue": 1326,
      "Ġind": 1327,
      "ĠMay": 1328,
      "No": 1329,
      "Ġent": 1330,
      "Ġ00": 1331,
      "ually": 1332,
      "Ġhands": 1333,
      "ove": 1334,
      "Ġmor": 1335,
      "iting": 1336,
      "reen": 1337,
      "That": 1338,
      "Ġforest": 1339,
      "ale": 1340,
      "ĠNew": 1341,
      "Ġwell": 1342,
      "ury": 1343,
      "ures": 1344,
      "ating": 1345,
      "Ġ199": 1346,
      "Ġstopped": 1347,
      "Ġrain": 1348,
      "Ġdoes": 1349,
      "Ġtri": 1350,
      "Ġform": 1351,
      "Ġwat": 1352,
      "Ġmin": 1353,
      "Ġfire": 1354,
      "Ġsupp": 1355,
      "Ġwalking": 1356,
      "Ġrock": 1357,
      "olog": 1358,
      "wards": 1359,
      "Ġpol": 1360,
      "Ġappear": 1361,
      "Ġenjoy": 1362,
      "Ġfour": 1363,
      "Ġlooking": 1364,
      "Ġeyes": 1365,
      "Ġwatch": 1366,
      "ret": 1367,
      "Ġsqu": 1368,
      "Ġsub": 1369,
      "Ġpain": 1370,
      "Ġbeh": 1371,
      "ster": 1372,
      "Ħ¢": 1373,
      "âĤ¬âĦ¢": 1374,
      "ower": 1375,
      "Ġseason": 1376,
      "Ġexp": 1377,
      "Ġmusic": 1378,
      "Ġhaving": 1379,
      "Ġboat": 1380,
      "Ġshowed": 1381,
      "Ġnight": 1382,
      "Ġleft": 1383,
      "Ġfav": 1384,
      "meric": 1385,
      "Ġremember": 1386,
      "Ġbus": 1387,
      "Ġlisten": 1388,
      "Ġsecond": 1389,
      "Ġtop": 1390,
      "ost": 1391,
      "Ġsmile": 1392,
      "Ġfish": 1393,
      "Ġ/": 1394,
      "ĠAmeric": 1395,
      "cri": 1396,
      "Thank": 1397,
      "ĠCom": 1398,
      "ral": 1399,
      "Ġproduc": 1400,
      "ince": 1401,
      "Ġwond": 1402,
      "hy": 1403,
      "Ġtruck": 1404,
      "Ġsy": 1405,
      "let": 1406,
      "Ġour": 1407,
      "Ġgrab": 1408,
      "illed": 1409,
      "aren": 1410,
      "Ġreached": 1411,
      "Ġquickly": 1412,
      "Ġless": 1413,
      "ĠAt": 1414,
      "Ġslide": 1415,
      "Ġyell": 1416,
      "Ġvoice": 1417,
      "ĠSuddenly": 1418,
      "ike": 1419,
      "Ġz": 1420,
      "Ġamaz": 1421,
      "Ġmean": 1422,
      "Ġface": 1423,
      "ote": 1424,
      "Ġdisc": 1425,
      "Ġland": 1426,
      "Ġinv": 1427,
      "She": 1428,
      "Ġsame": 1429,
      "Ġnoticed": 1430,
      "ĠLe": 1431,
      "eter": 1432,
      "Ġtell": 1433,
      "io": 1434,
      "Ġvis": 1435,
      "Ġass": 1436,
      "Ġflowers": 1437,
      "vers": 1438,
      "ns": 1439,
      "Ġdist": 1440,
      "Ġdraw": 1441,
      "Ġ000": 1442,
      "Ġfell": 1443,
      "Ġswe": 1444,
      "itc": 1445,
      "Ġpop": 1446,
      "Ġdep": 1447,
      "Ġnumber": 1448,
      "Ġreplied": 1449,
      "ĠDad": 1450,
      "Suddenly": 1451,
      "day": 1452,
      "After": 1453,
      "Ġmove": 1454,
      "ific": 1455,
      "Ġtra": 1456,
      "ĠSue": 1457,
      "Ġseen": 1458,
      "Ġstore": 1459,
      "Ġalong": 1460,
      "Ġpass": 1461,
      "Ġmaking": 1462,
      "An": 1463,
      "gr": 1464,
      "abbit": 1465,
      "Ġfur": 1466,
      "ute": 1467,
      "ined": 1468,
      "Ġep": 1469,
      "Ġdress": 1470,
      "ics": 1471,
      "ĠOn": 1472,
      "Ġbrother": 1473,
      "urious": 1474,
      "Ġbit": 1475,
      "Ġdro": 1476,
      "Ġmay": 1477,
      "Ġhimself": 1478,
      "Ġeveryone": 1479,
      "Ġwatched": 1480,
      "Ġob": 1481,
      "ms": 1482,
      "Ġrabbit": 1483,
      "bum": 1484,
      "Ġwin": 1485,
      "ĠRe": 1486,
      "Ġlight": 1487,
      "Ġheld": 1488,
      "Ġokay": 1489,
      "chool": 1490,
      "ible": 1491,
      "bye": 1492,
      "Ġpubl": 1493,
      "Ġsuc": 1494,
      "Ġste": 1495,
      "Ġresp": 1496,
      "more": 1497,
      "olly": 1498,
      "Ġwalk": 1499,
      "Ġcloser": 1500,
      "Ġlost": 1501,
      "ugg": 1502,
      "ĠDe": 1503,
      "Ġhelped": 1504,
      "any": 1505,
      "igin": 1506,
      "ets": 1507,
      "aper": 1508,
      "Ġwarm": 1509,
      "Ġcap": 1510,
      "Ġread": 1511,
      "Ġ10": 1512,
      "used": 1513,
      "We": 1514,
      "Ġdri": 1515,
      "Ġgiv": 1516,
      "ids": 1517,
      "Ġhear": 1518,
      "Ġagainst": 1519,
      "Ġteam": 1520,
      "Ġmil": 1521,
      "Ġcontinued": 1522,
      "Ġ0": 1523,
      "Ġsure": 1524,
      "Ġretur": 1525,
      "ĠAll": 1526,
      "Ġbirds": 1527,
      "leep": 1528,
      "ored": 1529,
      "Ġinf": 1530,
      "app": 1531,
      "kes": 1532,
      "Ġstud": 1533,
      "Ġfull": 1534,
      "Ġlead": 1535,
      "Look": 1536,
      "Ġflo": 1537,
      "Ġgrand": 1538,
      "ert": 1539,
      "So": 1540,
      "Ġforg": 1541,
      "Ġalbum": 1542,
      "Ġepis": 1543,
      "Her": 1544,
      "sh": 1545,
      "iam": 1546,
      "ork": 1547,
      "Ġhere": 1548,
      "ines": 1549,
      "Ġperform": 1550,
      "ott": 1551,
      "Ġgoodbye": 1552,
      "Ġepisod": 1553,
      "Ġbar": 1554,
      "ger": 1555,
      "ities": 1556,
      "Ġcurious": 1557,
      "Ġarri": 1558,
      "aught": 1559,
      "Ġwait": 1560,
      "Ġcook": 1561,
      "ila": 1562,
      "Ġstop": 1563,
      "mber": 1564,
      "ĠHow": 1565,
      "Ġpers": 1566,
      "ĠJane": 1567,
      "reed": 1568,
      "leased": 1569,
      "Ġwon": 1570,
      "ĠThere": 1571,
      "Ġbright": 1572,
      "Ġanymore": 1573,
      "Ġknown": 1574,
      "Ġhold": 1575,
      "Ġel": 1576,
      "Ġfew": 1577,
      "aves": 1578,
      "ps": 1579,
      "Ġsever": 1580,
      "Ġdire": 1581,
      "Ġmess": 1582,
      "Ġseries": 1583,
      "over": 1584,
      "isy": 1585,
      "ling": 1586,
      "Ġhun": 1587,
      "Ġchildren": 1588,
      "Ġfavor": 1589,
      "As": 1590,
      "Ġwar": 1591,
      "Ġrece": 1592,
      "Ġcake": 1593,
      "Ġbehind": 1594,
      "Ġsign": 1595,
      "Ġthese": 1596,
      "Ġsees": 1597,
      "Ġdone": 1598,
      "ĠEng": 1599,
      "Ġcharac": 1600,
      "Ġorigin": 1601,
      "Ġbelie": 1602,
      "Can": 1603,
      "row": 1604,
      "Ġreally": 1605,
      "Ġext": 1606,
      "Ġsand": 1607,
      "Sara": 1608,
      "Ġsho": 1609,
      "Ġgrass": 1610,
      "Ġunderst": 1611,
      "ĠSh": 1612,
      "Ġbutter": 1613,
      "Ġjoin": 1614,
      "itchen": 1615,
      "Ġhappened": 1616,
      "Anna": 1617,
      "Ġshou": 1618,
      "Ġgu": 1619,
      "Ġkitchen": 1620,
      "Ġparen": 1621,
      "ĠSpot": 1622,
      "Ġter": 1623,
      "ĠMommy": 1624,
      "Ġcast": 1625,
      "ains": 1626,
      "ĠFl": 1627,
      "rog": 1628,
      "ĠThat": 1629,
      "Ġprin": 1630,
      "Ġfollowed": 1631,
      "Ġ12": 1632,
      "Ġcontr": 1633,
      "Ġworked": 1634,
      "Ġ16": 1635,
      "ments": 1636,
      "Ġincluding": 1637,
      "uary": 1638,
      "ĠWh": 1639,
      "Ġsoft": 1640,
      "atter": 1641,
      "aster": 1642,
      "Ġsweet": 1643,
      "Ġtrans": 1644,
      "Jo": 1645,
      "oney": 1646,
      "Ġstick": 1647,
      "ction": 1648,
      "where": 1649,
      "ister": 1650,
      "Ġ198": 1651,
      "Ġlearn": 1652,
      "Ġgener": 1653,
      "Ġship": 1654,
      "aj": 1655,
      "Ġmill": 1656,
      "rand": 1657,
      "Ġjumped": 1658,
      "avy": 1659,
      "oke": 1660,
      "ict": 1661,
      "velop": 1662,
      "aces": 1663,
      "Ġwood": 1664,
      "Ġconf": 1665,
      "Ġpick": 1666,
      "Ġrunning": 1667,
      "aced": 1668,
      "its": 1669,
      "Ġearly": 1670,
      "Ġtouch": 1671,
      "Ġadventure": 1672,
      "Ġinst": 1673,
      "Ġside": 1674,
      "ially": 1675,
      "ĠEm": 1676,
      "Ġpur": 1677,
      "Ġ17": 1678,
      "Ġgrabbed": 1679,
      "though": 1680,
      "ĠZ": 1681,
      "Ġleg": 1682,
      "son": 1683,
      "ĠLet": 1684,
      "ĠDo": 1685,
      "unny": 1686,
      "bo": 1687,
      "Ġwhite": 1688,
      "Ġslow": 1689,
      "Ġcoming": 1690,
      "Ġglad": 1691,
      "ived": 1692,
      "Ġschool": 1693,
      "oman": 1694,
      "Ġcatch": 1695,
      "Ġpus": 1696,
      "Ġable": 1697,
      "ĠBrit": 1698,
      "ĠUnited": 1699,
      "Ġmain": 1700,
      "ama": 1701,
      "Ġhair": 1702,
      "Ġrealized": 1703,
      "une": 1704,
      "Ġclose": 1705,
      "Ġready": 1706,
      "Ġfinished": 1707,
      "anger": 1708,
      "Ġfavorite": 1709,
      "Ġthing": 1710,
      "ended": 1711,
      "ured": 1712,
      "ley": 1713,
      "Ġhop": 1714,
      "Ġpaper": 1715,
      "'re": 1716,
      "ement": 1717,
      "ball": 1718,
      "Ġ15": 1719,
      "ative": 1720,
      "ek": 1721,
      "Ġtow": 1722,
      "ober": 1723,
      "Ġref": 1724,
      "Ġlarge": 1725,
      "Ġbow": 1726,
      "Ġdin": 1727,
      "Ġhat": 1728,
      "Ġshouted": 1729,
      "ctor": 1730,
      "Ġsuccess": 1731,
      "Ġdescri": 1732,
      "ced": 1733,
      "ots": 1734,
      "Ġcentury": 1735,
      "Ġfix": 1736,
      "Ġlife": 1737,
      "Ġcre": 1738,
      "Ġsat": 1739,
      "Ġart": 1740,
      "Ġyellow": 1741,
      "Ġest": 1742,
      "Ġdark": 1743,
      "ooks": 1744,
      "zy": 1745,
      "Ġmother": 1746,
      "Ġlate": 1747,
      "Ġate": 1748,
      "Ġothers": 1749,
      "Ġseveral": 1750,
      "ected": 1751,
      "Ġgreen": 1752,
      "ĠSc": 1753,
      "Ġblocks": 1754,
      "Ġlady": 1755,
      "Ġparents": 1756,
      "ĠJen": 1757,
      "ask": 1758,
      "ĠâĢĶ": 1759,
      "ĠEveryone": 1760,
      "erv": 1761,
      "Ġmiss": 1762,
      "Ġyummy": 1763,
      "Ġgames": 1764,
      "Ġconc": 1765,
      "ories": 1766,
      "Ġfunny": 1767,
      "Ġword": 1768,
      "Ġwonder": 1769,
      "Ġtrees": 1770,
      "Ġepisode": 1771,
      "Ġtired": 1772,
      "Ġ11": 1773,
      "Ġcool": 1774,
      "Ġwhy": 1775,
      "Ġph": 1776,
      "ries": 1777,
      "Ġadd": 1778,
      "ken": 1779,
      "Ġcount": 1780,
      "Wow": 1781,
      "Ġthin": 1782,
      "Ġdevelop": 1783,
      "fly": 1784,
      "Ġfield": 1785,
      "Ġneeded": 1786,
      "Ġworry": 1787,
      "ature": 1788,
      "ĠInd": 1789,
      "Ġcour": 1790,
      "Ġgroup": 1791,
      "Ġcity": 1792,
      "Ġpat": 1793,
      "Ġstand": 1794,
      "Ġlooks": 1795,
      "Ġwear": 1796,
      "Ġpond": 1797,
      "Ġmight": 1798,
      "Ġthink": 1799,
      "Ġflower": 1800,
      "Ġ194": 1801,
      "ony": 1802,
      "Ġtown": 1803,
      "Ġtall": 1804,
      "Ġgrow": 1805,
      "ĠSarah": 1806,
      "Ġ-": 1807,
      "aby": 1808,
      "ĠBl": 1809,
      "Ġcolor": 1810,
      "Ġarrived": 1811,
      "Ġdef": 1812,
      "ĠChr": 1813,
      "Ġoper": 1814,
      "Ġcrit": 1815,
      "Ġkids": 1816,
      "Ġwindow": 1817,
      "Ġwithout": 1818,
      "bers": 1819,
      "ness": 1820,
      "Ġwaved": 1821,
      "els": 1822,
      "Ġcla": 1823,
      "Ġcried": 1824,
      "struc": 1825,
      "view": 1826,
      "ĠAmerican": 1827,
      "less": 1828,
      "Ġdoing": 1829,
      "Ġcold": 1830,
      "Ġclimb": 1831,
      "Ġpower": 1832,
      "Ġed": 1833,
      "Ġmum": 1834,
      "ept": 1835,
      "idge": 1836,
      "Ġins": 1837,
      "Mommy": 1838,
      "Don": 1839,
      "ject": 1840,
      "ently": 1841,
      "Ġfloor": 1842,
      "Ġcreat": 1843,
      "Ġfight": 1844,
      "Ġhill": 1845,
      "key": 1846,
      "Ġfall": 1847,
      "aisy": 1848,
      "Ġ196": 1849,
      "ĠCl": 1850,
      "Ġsit": 1851,
      "Ġbunny": 1852,
      "emp": 1853,
      "Ġbrought": 1854,
      "Ġlaugh": 1855,
      "ivers": 1856,
      "Ġsim": 1857,
      "Ġmed": 1858,
      "Ġherself": 1859,
      "ĠIs": 1860,
      "Ġprot": 1861,
      "Ġreleased": 1862,
      "Ġswing": 1863,
      "Ġmoved": 1864,
      "Ġprov": 1865,
      "Ġcars": 1866,
      "Ġeff": 1867,
      "rop": 1868,
      "Ġsurprise": 1869,
      "Ġyard": 1870,
      "ĠFr": 1871,
      "andy": 1872,
      "Ġhole": 1873,
      "Timmy": 1874,
      "idd": 1875,
      "Ġwall": 1876,
      "Ġwished": 1877,
      "Ġswim": 1878,
      "Ġcut": 1879,
      "Ġevent": 1880,
      "mb": 1881,
      "Ġenjoyed": 1882,
      "Ġbag": 1883,
      "ĠCar": 1884,
      "Ġdelic": 1885,
      "Ġenough": 1886,
      "Ġorgan": 1887,
      "Ġ197": 1888,
      "asure": 1889,
      "ĠGer": 1890,
      "Ġsleep": 1891,
      "Ġthough": 1892,
      "Ġclass": 1893,
      "ead": 1894,
      "yp": 1895,
      "Ġhist": 1896,
      "room": 1897,
      "Ġhot": 1898,
      "oring": 1899,
      "ilt": 1900,
      "ĠWar": 1901,
      "Ġbuy": 1902,
      "Ġremembered": 1903,
      "Ġfrog": 1904,
      "Ġmouse": 1905,
      "Ġice": 1906,
      "Ġtowards": 1907,
      "Ġocc": 1908,
      "Ġbooks": 1909,
      "Ġspot": 1910,
      "ium": 1911,
      "old": 1912,
      "Ġcra": 1913,
      "uth": 1914,
      "Ġblack": 1915,
      "rel": 1916,
      "Ġagreed": 1917,
      "Ġes": 1918,
      "Ġhappily": 1919,
      "Ġband": 1920,
      "ello": 1921,
      "itten": 1922,
      "Ġfair": 1923,
      "Ġanything": 1924,
      "Ġstorm": 1925,
      "ape": 1926,
      "Ġoffic": 1927,
      "alth": 1928,
      "Ġturned": 1929,
      "John": 1930,
      "ately": 1931,
      "Ġline": 1932,
      "Ġacross": 1933,
      "ten": 1934,
      "Ġkm": 1935,
      "Ġarea": 1936,
      "Ġsnow": 1937,
      "Ġunderstand": 1938,
      "und": 1939,
      "Ġcarefully": 1940,
      "ues": 1941,
      "ĠPar": 1942,
      "Ġhopped": 1943,
      "Ġsometimes": 1944,
      "Ġtail": 1945,
      "Ġwrong": 1946,
      "ĠJoe": 1947,
      "aur": 1948,
      "Ġsix": 1949,
      "eddy": 1950,
      "Ġmakes": 1951,
      "Ġwrote": 1952,
      "ĠWor": 1953,
      "but": 1954,
      "ina": 1955,
      "Ġyoung": 1956,
      "Ġgun": 1957,
      "Ġhig": 1958,
      "orted": 1959,
      "ĠTr": 1960,
      "ides": 1961,
      "cted": 1962,
      "ney": 1963,
      "Ġlesson": 1964,
      "Ġtable": 1965,
      "Ġcolle": 1966,
      "urch": 1967,
      "Hello": 1968,
      "Ġfive": 1969,
      "icy": 1970,
      "irt": 1971,
      "Ġperson": 1972,
      "Ġfollowing": 1973,
      "ists": 1974,
      "ĠBritish": 1975,
      "Sam": 1976,
      "Ġlast": 1977,
      "Ġhum": 1978,
      "Ġcoun": 1979,
      "Ġbutterfly": 1980,
      "Ġfree": 1981,
      "lo": 1982,
      "Ġmix": 1983,
      "At": 1984,
      "inally": 1985,
      "igned": 1986,
      "ĠAust": 1987,
      "Ġfriendly": 1988,
      "ajor": 1989,
      "Ġmillion": 1990,
      "stem": 1991,
      "Ġdays": 1992,
      "Ġlikes": 1993,
      "ĠBenny": 1994,
      "ck": 1995,
      "cle": 1996,
      "Ġ13": 1997,
      "Ġ195": 1998,
      "Ġbroken": 1999,
      "Ġow": 2000,
      "ize": 2001,
      "med": 2002,
      "ects": 2003,
      "thern": 2004,
      "Ġfinally": 2005,
      "orts": 2006,
      "Ġtrain": 2007,
      "Ġmorning": 2008,
      "\".": 2009,
      "Ġpresent": 2010,
      "Ġcond": 2011,
      "Ġcharacter": 2012,
      "ĠBe": 2013,
      "Ġdeep": 2014,
      "Ġsurprised": 2015,
      "Ġve": 2016,
      "Ġmem": 2017,
      "Ġnorth": 2018,
      "Ġleaves": 2019,
      "Ġfilled": 2020,
      "ĠNow": 2021,
      "uz": 2022,
      "Ġgone": 2023,
      "ital": 2024,
      "ĠAug": 2025,
      "Ġallow": 2026,
      "ipp": 2027,
      "Ġelse": 2028,
      "gy": 2029,
      "Ġcolors": 2030,
      "ĠAugust": 2031,
      "ĠSally": 2032,
      "ages": 2033,
      "Ġroad": 2034,
      "From": 2035,
      "Ġgover": 2036,
      "Ġtight": 2037,
      "Ġsomeone": 2038,
      "Ġstate": 2039,
      "ex": 2040,
      "Ġsear": 2041,
      "ĠHowever": 2042,
      "Ġbug": 2043,
      "Ġplease": 2044,
      "Ġseem": 2045,
      "Ġtreat": 2046,
      "Ġpupp": 2047,
      "ĠGrand": 2048,
      "ĠAd": 2049,
      "Ġbreak": 2050,
      "ĠMc": 2051,
      "ĠCol": 2052,
      "osed": 2053,
      "acks": 2054,
      "Ġ191": 2055,
      "Ġeas": 2056,
      "cept": 2057,
      "hel": 2058,
      "Ġwonderful": 2059,
      "Ġann": 2060,
      "Ġadv": 2061,
      "Ġwants": 2062,
      "Ġperfect": 2063,
      "Ġconsid": 2064,
      "Ġdanc": 2065,
      "Ġdesign": 2066,
      "uffy": 2067,
      "ĠDaisy": 2068,
      "ĠSept": 2069,
      "ises": 2070,
      "Ġheavy": 2071,
      "..": 2072,
      "que": 2073,
      "ray": 2074,
      "vious": 2075,
      "reet": 2076,
      "Ġsail": 2077,
      "Ġthank": 2078,
      "Ġgetting": 2079,
      "oom": 2080,
      "Ġask": 2081,
      "Ġmoment": 2082,
      "Ġcover": 2083,
      "iter": 2084,
      "ĠUS": 2085,
      "ism": 2086,
      "Ġcamp": 2087,
      "Ġfoot": 2088,
      "ats": 2089,
      "Ġant": 2090,
      "ĠJu": 2091,
      "Ġdelicious": 2092,
      "ural": 2093,
      "Ġsince": 2094,
      "Ġpartic": 2095,
      "port": 2096,
      "Ġvar": 2097,
      "ĠSeptember": 2098,
      "ife": 2099,
      "Ġtrying": 2100,
      "Ġcastle": 2101,
      "gin": 2102,
      "Ġvisit": 2103,
      "Ġreceived": 2104,
      "Ġspl": 2105,
      "Ġ193": 2106,
      "Ġlion": 2107,
      "Ġ$": 2108,
      "Ġleave": 2109,
      "Ġparty": 2110,
      "Ġdam": 2111,
      "ese": 2112,
      "Ġincre": 2113,
      "to": 2114,
      "arr": 2115,
      "Ġrace": 2116,
      "Ġliving": 2117,
      "Ġstart": 2118,
      "Ġalone": 2119,
      "Ġoften": 2120,
      "Ġroll": 2121,
      "ĠPl": 2122,
      "Ġdream": 2123,
      "This": 2124,
      "ces": 2125,
      "Ġriver": 2126,
      "Ġjob": 2127,
      "Ġdinner": 2128,
      "ĠGerman": 2129,
      "Ã©": 2130,
      "Ġ14": 2131,
      "Ġspe": 2132,
      "Ġgovern": 2133,
      "ours": 2134,
      "ĠWhat": 2135,
      "Ġclot": 2136,
      "Ġca": 2137,
      "Ġbuilt": 2138,
      "iec": 2139,
      "te": 2140,
      "ĠChrist": 2141,
      "ĠStates": 2142,
      "ales": 2143,
      "Jack": 2144,
      "Then": 2145,
      "Ġfeat": 2146,
      "iding": 2147,
      "Ġpictures": 2148,
      "Ġthose": 2149,
      "Ġteac": 2150,
      "ĠQ": 2151,
      "ants": 2152,
      "ĠJan": 2153,
      "ording": 2154,
      "Ġwet": 2155,
      "Ġsongs": 2156,
      "Ġoriginal": 2157,
      "la": 2158,
      "Ġshort": 2159,
      "Ġ%": 2160,
      "Ġmust": 2161,
      "ĠLila": 2162,
      "Ġpri": 2163,
      "Ġruns": 2164,
      "ung": 2165,
      "aged": 2166,
      "ĠWorld": 2167,
      "Ġmoney": 2168,
      "ĠBilly": 2169,
      "'ll": 2170,
      "ron": 2171,
      "alf": 2172,
      "Ġeverything": 2173,
      "Ġgrandma": 2174,
      "ĠNorth": 2175,
      "Ġyes": 2176,
      "Ġscary": 2177,
      "ĠCon": 2178,
      "ĠJune": 2179,
      "sw": 2180,
      "Ġdest": 2181,
      "ested": 2182,
      "Ġsmell": 2183,
      "Ġtalk": 2184,
      "Ġamazing": 2185,
      "Ġsouth": 2186,
      "Ġpuppy": 2187,
      "Ġmajor": 2188,
      "ility": 2189,
      "Ġbuilding": 2190,
      "unch": 2191,
      "Ġpot": 2192,
      "anch": 2193,
      "Ġpink": 2194,
      "Ġfox": 2195,
      "Ġstars": 2196,
      "ĠComm": 2197,
      "ĠKing": 2198,
      "ience": 2199,
      "pril": 2200,
      "eth": 2201,
      "Ġflying": 2202,
      "Ġstayed": 2203,
      "ĠFor": 2204,
      "Ġbeach": 2205,
      "ĠApril": 2206,
      "Ġsystem": 2207,
      "ĠPr": 2208,
      "Ġsingle": 2209,
      "Ġposs": 2210,
      "Ġsister": 2211,
      "Ġappro": 2212,
      "yl": 2213,
      "Ġsold": 2214,
      "Ġfinal": 2215,
      "Ġturn": 2216,
      "Ġpet": 2217,
      "ĠTo": 2218,
      "Ġtast": 2219,
      "Ġpublic": 2220,
      "Ġcookies": 2221,
      "ze": 2222,
      "ery": 2223,
      "Ġdanger": 2224,
      "Ġpul": 2225,
      "ivision": 2226,
      "aid": 2227,
      "isted": 2228,
      "ech": 2229,
      "ieces": 2230,
      "Ġclimbed": 2231,
      "ple": 2232,
      "Ġhungry": 2233,
      "Ġcloud": 2234,
      "Ġclothes": 2235,
      "Ġmen": 2236,
      "Ġbecome": 2237,
      "Ġwasn": 2238,
      "His": 2239,
      "ene": 2240,
      "ucky": 2241,
      "Ġnec": 2242,
      "ĠJim": 2243,
      "ĠGe": 2244,
      "Ġpretend": 2245,
      "ideo": 2246,
      "Ġbaby": 2247,
      "Ġride": 2248,
      "Ġsugg": 2249,
      "Ġled": 2250,
      "ague": 2251,
      "Ġav": 2252,
      "ne": 2253,
      "eng": 2254,
      "ham": 2255,
      "ĠSouth": 2256,
      "Ġadm": 2257,
      "Ġdescribed": 2258,
      "Ġpie": 2259,
      "Ġforgot": 2260,
      "icks": 2261,
      "ĠII": 2262,
      "Ġround": 2263,
      "ĠAustral": 2264,
      "Ġtit": 2265,
      "igg": 2266,
      "ively": 2267,
      "ĠOct": 2268,
      "Ġlistened": 2269,
      "ush": 2270,
      "ĠMaybe": 2271,
      "Ġcur": 2272,
      "Ġview": 2273,
      "ĠNo": 2274,
      "Ġinstead": 2275,
      "Ġincluded": 2276,
      "Ġ]": 2277,
      "Ġpieces": 2278,
      "ĠEur": 2279,
      "lish": 2280,
      "uss": 2281,
      "Ġcomple": 2282,
      "lev": 2283,
      "Ġsmiles": 2284,
      "bs": 2285,
      "Ġbatt": 2286,
      "Ġcir": 2287,
      "ically": 2288,
      "Ġasks": 2289,
      "ination": 2290,
      "Ġvill": 2291,
      "ĠGr": 2292,
      "ĠOctober": 2293,
      "Ġ[": 2294,
      "Ġfeet": 2295,
      "Ġvers": 2296,
      "Ġwhe": 2297,
      "ified": 2298,
      "May": 2299,
      "Ġrequ": 2300,
      "Ġbur": 2301,
      "Ġdue": 2302,
      "Ġjour": 2303,
      "board": 2304,
      "Ġshar": 2305,
      "Ġmoral": 2306,
      "Ġsupport": 2307,
      "ipped": 2308,
      "Ġdisapp": 2309,
      "Ġport": 2310,
      "Ġdance": 2311,
      "Ġreach": 2312,
      "Ġarm": 2313,
      "Ġeng": 2314,
      "ians": 2315,
      "Ġstrange": 2316,
      "Ġdaddy": 2317,
      "ah": 2318,
      "aken": 2319,
      "Ġwaited": 2320,
      "ĠJuly": 2321,
      "ĠMr": 2322,
      "ift": 2323,
      "ison": 2324,
      "ator": 2325,
      "Ġpast": 2326,
      "Ġmark": 2327,
      "Ġclosed": 2328,
      "ĠFe": 2329,
      "uper": 2330,
      "Ġlake": 2331,
      "Ġpulled": 2332,
      "Ġmouth": 2333,
      "Ġval": 2334,
      "ution": 2335,
      "irrel": 2336,
      "Ġbased": 2337,
      "gon": 2338,
      "iant": 2339,
      "acked": 2340,
      "Ġdeath": 2341,
      "Ġ...": 2342,
      "elc": 2343,
      "ensive": 2344,
      "Ġhide": 2345,
      "Ġcream": 2346,
      "Ġwords": 2347,
      "Ġsilly": 2348,
      "iod": 2349,
      "Ġinterest": 2350,
      "ĠWill": 2351,
      "Ġcourse": 2352,
      "ĠWith": 2353,
      "ology": 2354,
      "set": 2355,
      "Ġbott": 2356,
      "Ġhit": 2357,
      "ense": 2358,
      "Ġteddy": 2359,
      "Ġce": 2360,
      "ountain": 2361,
      "Ġmeet": 2362,
      "Ġpromised": 2363,
      "Ġansw": 2364,
      "Ġshared": 2365,
      "Ġreturned": 2366,
      "tain": 2367,
      "ĠYork": 2368,
      "ĠMary": 2369,
      "Ġsquirrel": 2370,
      "Ġcompet": 2371,
      "Ġtaking": 2372,
      "osp": 2373,
      "Ġwoods": 2374,
      "ager": 2375,
      "augh": 2376,
      "Ġamazed": 2377,
      "Ġ25": 2378,
      "ĠJanuary": 2379,
      "Ġmatch": 2380,
      "Ġsea": 2381,
      "Maybe": 2382,
      "ilar": 2383,
      "Ġclub": 2384,
      "Ġfront": 2385,
      "Ġowner": 2386,
      "Ġtower": 2387,
      "ying": 2388,
      "Ġwithin": 2389,
      "Ġspark": 2390,
      "Ġking": 2391,
      "Ġlonger": 2392,
      "Ġbowl": 2393,
      "Ġsent": 2394,
      "ars": 2395,
      "Ġbring": 2396,
      "Ġslowly": 2397,
      "Ġcard": 2398,
      "ention": 2399,
      "Ġconstruc": 2400,
      "fort": 2401,
      "Ġchang": 2402,
      "Ġproble": 2403,
      "Ġbroke": 2404,
      "ches": 2405,
      "irty": 2406,
      "Oh": 2407,
      "ection": 2408,
      "Ġra": 2409,
      "Ġjoy": 2410,
      "Ġmonth": 2411,
      "Ġdem": 2412,
      "ressed": 2413,
      "par": 2414,
      "ighb": 2415,
      "ances": 2416,
      "read": 2417,
      "Ġthird": 2418,
      "Ġexper": 2419,
      "Ġpaint": 2420,
      "eal": 2421,
      "Ġcup": 2422,
      "Ġbody": 2423,
      "Ġ30": 2424,
      "Ġlow": 2425,
      "Ġthrow": 2426,
      "ĠTommy": 2427,
      "Ġhigher": 2428,
      "ices": 2429,
      "Ġneighb": 2430,
      "Ġquest": 2431,
      "ones": 2432,
      "ĠDece": 2433,
      "Ġtoday": 2434,
      "ĠAmy": 2435,
      "Ġju": 2436,
      "ĠNove": 2437,
      "iversity": 2438,
      "ĠNovember": 2439,
      "Ġhalf": 2440,
      "Ġer": 2441,
      "Ġappeared": 2442,
      "ĠDecember": 2443,
      "Ġspecies": 2444,
      "ĠMarch": 2445,
      "Max": 2446,
      "Ġtyp": 2447,
      "itions": 2448,
      "Ġprevious": 2449,
      "Ġhelping": 2450,
      "Ġperiod": 2451,
      "Ġestab": 2452,
      "Ġord": 2453,
      "Ġvideo": 2454,
      "Ġpract": 2455,
      "Ġthinks": 2456,
      "Ġbigger": 2457,
      "Ġmagical": 2458,
      "itch": 2459,
      "Ġfruit": 2460,
      "Ġreview": 2461,
      "rit": 2462,
      "ission": 2463,
      "ok": 2464,
      "Ġcross": 2465,
      "Ġfather": 2466,
      "olf": 2467,
      "Ġdolls": 2468,
      "Ġcal": 2469,
      "Ġcorn": 2470,
      "irth": 2471,
      "Ġfarmer": 2472,
      "Ġeventually": 2473,
      "Ġgovernment": 2474,
      "most": 2475,
      "ulation": 2476,
      "Ġanimal": 2477,
      "ional": 2478,
      "Ġbrown": 2479,
      "sc": 2480,
      "ering": 2481,
      "orse": 2482,
      "Ġkey": 2483,
      "ming": 2484,
      "Ġcandy": 2485,
      "itting": 2486,
      "Ġorder": 2487,
      "Ġtimes": 2488,
      "Ġballoon": 2489,
      "Ġfurther": 2490,
      "Ġtour": 2491,
      "ogra": 2492,
      "umb": 2493,
      "Ġmod": 2494,
      "Ġbelieve": 2495,
      "Ġopp": 2496,
      "Ġalthough": 2497,
      "Ġrespect": 2498,
      "aughter": 2499,
      "Ġrad": 2500,
      "Ġeverywhere": 2501,
      "ences": 2502,
      "Ġdiscover": 2503,
      "Ġ100": 2504,
      "uzz": 2505,
      "ped": 2506,
      "asket": 2507,
      "fic": 2508,
      "Ġsol": 2509,
      "Ġworried": 2510,
      "Ġrelie": 2511,
      "Ġbike": 2512,
      "Ġstories": 2513,
      "Ġ192": 2514,
      "ĠÂ": 2515,
      "ocked": 2516,
      "Ġdangerous": 2517,
      "ĠEurope": 2518,
      "gg": 2519,
      "Ġpoint": 2520,
      "Ġpull": 2521,
      "Ġfaster": 2522,
      "ĠNational": 2523,
      "ateful": 2524,
      "ov": 2525,
      "Ġmot": 2526,
      "Ġwelc": 2527,
      "aff": 2528,
      "Ġduck": 2529,
      "ler": 2530,
      "ald": 2531,
      "Ġdoctor": 2532,
      "ropical": 2533,
      "iation": 2534,
      "Ġhon": 2535,
      "Ġsecret": 2536,
      "ĠSe": 2537,
      "ĠBy": 2538,
      "Ġgrateful": 2539,
      "Ġexplained": 2540,
      "ae": 2541,
      "ĠPh": 2542,
      "OK": 2543,
      "iness": 2544,
      "Ġprincess": 2545,
      "Okay": 2546,
      "ĠRo": 2547,
      "Ġblank": 2548,
      "ring": 2549,
      "Ġnearby": 2550,
      "ĠEngland": 2551,
      "Ġeight": 2552,
      "ana": 2553,
      "Ġrole": 2554,
      "Ġauth": 2555,
      "Ġkiss": 2556,
      "Ġmoder": 2557,
      "Ġpen": 2558,
      "sp": 2559,
      "ĠRiver": 2560,
      "althy": 2561,
      "Ġwag": 2562,
      "itary": 2563,
      "Ġcarry": 2564,
      "dom": 2565,
      "Ġisland": 2566,
      "Ġquiet": 2567,
      "int": 2568,
      "ĠCoun": 2569,
      "Ġteacher": 2570,
      "roduc": 2571,
      "Ġlocal": 2572,
      "use": 2573,
      "Ġtakes": 2574,
      "ucks": 2575,
      "Ġstepped": 2576,
      "Ġpost": 2577,
      "Ġhoped": 2578,
      "ior": 2579,
      "Ġiss": 2580,
      "orrow": 2581,
      "ĠMan": 2582,
      "roy": 2583,
      "ĠOr": 2584,
      "ither": 2585,
      "Ġ2010": 2586,
      "aining": 2587,
      "Ġfarm": 2588,
      "Ġwritten": 2589,
      "Ġdragon": 2590,
      "Ġchair": 2591,
      "Ġstat": 2592,
      "ĠEd": 2593,
      "Ġcrying": 2594,
      "imed": 2595,
      "ĠCity": 2596,
      "ubb": 2597,
      "Ġusing": 2598,
      "ining": 2599,
      "Ġheart": 2600,
      "Ġplayer": 2601,
      "levision": 2602,
      "pping": 2603,
      "Ġdropped": 2604,
      "Ġsimilar": 2605,
      "ĠGeor": 2606,
      "Ġdaughter": 2607,
      "Ġlaw": 2608,
      "Ġtrad": 2609,
      "Ġtrack": 2610,
      "Ġweek": 2611,
      "ives": 2612,
      "nam": 2613,
      "ising": 2614,
      "Ġmonkey": 2615,
      "Ġcarr": 2616,
      "Ġpopular": 2617,
      "Ġbasket": 2618,
      "mp": 2619,
      "ouble": 2620,
      "ĠJill": 2621,
      "Ġcommon": 2622,
      "aul": 2623,
      "Ġcolorful": 2624,
      "ĠSome": 2625,
      "Ġtwins": 2626,
      "Ġcompany": 2627,
      "Ġbirth": 2628,
      "Ġpiece": 2629,
      "Ġbelong": 2630,
      "Sure": 2631,
      "asing": 2632,
      "Ġhowever": 2633,
      "eder": 2634,
      "Ġthrew": 2635,
      "ĠWest": 2636,
      "Ġfig": 2637,
      "Ġsmart": 2638,
      "Ġcomb": 2639,
      "Ġobs": 2640,
      "Ġgiven": 2641,
      "Ġprop": 2642,
      "Ġpushed": 2643,
      "aving": 2644,
      "Ġrecorded": 2645,
      "Ġaddition": 2646,
      "Hi": 2647,
      "ĠDuring": 2648,
      "Ġ2008": 2649,
      "Ġeating": 2650,
      "omin": 2651,
      "ĠMolly": 2652,
      "af": 2653,
      "ude": 2654,
      "Why": 2655,
      "Ġarch": 2656,
      "Ġdirty": 2657,
      "Ġmach": 2658,
      "bow": 2659,
      "ole": 2660,
      "Ġbuck": 2661,
      "Ġcountry": 2662,
      "aly": 2663,
      "weet": 2664,
      "lu": 2665,
      "pper": 2666,
      "Ġconsidered": 2667,
      "Ġparticular": 2668,
      "Ġtaken": 2669,
      "Ġcommand": 2670,
      "Ġsinging": 2671,
      "Ġpolit": 2672,
      "ĠEl": 2673,
      "Ġdry": 2674,
      "ĠMich": 2675,
      "Ġwide": 2676,
      "rench": 2677,
      "yard": 2678,
      "Ġ2009": 2679,
      "Ġgent": 2680,
      "Ġshop": 2681,
      "Ġadded": 2682,
      "Ġamong": 2683,
      "Ġspent": 2684,
      "play": 2685,
      "Ġturns": 2686,
      "Ġshap": 2687,
      "Ġenc": 2688,
      "ĠSm": 2689,
      "Ġformer": 2690,
      "Ġsuccessful": 2691,
      "Ġwoman": 2692,
      "Ġ21": 2693,
      "Ġsour": 2694,
      "Ġpig": 2695,
      "Ġinit": 2696,
      "Ġnet": 2697,
      "Ġfeels": 2698,
      "Ġhistory": 2699,
      "yle": 2700,
      "Ġflag": 2701,
      "itive": 2702,
      "ground": 2703,
      "estern": 2704,
      "ĠAb": 2705,
      "Ġalmost": 2706,
      "Ġten": 2707,
      "Ġarms": 2708,
      "Ġbranch": 2709,
      "cial": 2710,
      "Ġnest": 2711,
      "Ġbath": 2712,
      "Ġstuck": 2713,
      "Ġaccident": 2714,
      "Ġmagic": 2715,
      "Ġupset": 2716,
      "Ġonce": 2717,
      "ĠBatt": 2718,
      "Ġlevel": 2719,
      "Ġneck": 2720,
      "Ġgentle": 2721,
      "Ġson": 2722,
      "Ġwest": 2723,
      "Ġru": 2724,
      "ĠFluffy": 2725,
      "Ġfact": 2726,
      "Ġdeter": 2727,
      "Ġeast": 2728,
      "Ġcray": 2729,
      "Ġcirc": 2730,
      "uce": 2731,
      "Ġcou": 2732,
      "ribut": 2733,
      "Ġdirect": 2734,
      "tle": 2735,
      "Ġversion": 2736,
      "Ġnap": 2737,
      "Ġcaught": 2738,
      "Ġpath": 2739,
      "ĠChar": 2740,
      "ĠEnglish": 2741,
      "pite": 2742,
      "Ġserv": 2743,
      "Ġstri": 2744,
      "Ġwouldn": 2745,
      "Ġvillage": 2746,
      "Ġmonster": 2747,
      "Ġsang": 2748,
      "Ġgold": 2749,
      "Ġdiffic": 2750,
      "Ġcomes": 2751,
      "Ġpublished": 2752,
      "Ġseemed": 2753,
      "Ġlon": 2754,
      "Ġlive": 2755,
      "Ġtreasure": 2756,
      "Ġcomplet": 2757,
      "Ġtot": 2758,
      "Ġmine": 2759,
      "Ġhappen": 2760,
      "Ġcor": 2761,
      "Ġlay": 2762,
      "nel": 2763,
      "osaur": 2764,
      "Ġshoes": 2765,
      "Ġwings": 2766,
      "Ġrocks": 2767,
      "Ġequ": 2768,
      "epend": 2769,
      "Ġowl": 2770,
      "Ġtest": 2771,
      "Ġrelease": 2772,
      "cean": 2773,
      "ival": 2774,
      "iddle": 2775,
      "Ġdrove": 2776,
      "Ġfit": 2777,
      "ĠDivision": 2778,
      "Ġfairy": 2779,
      "ricane": 2780,
      "ai": 2781,
      "ges": 2782,
      "Ġwhole": 2783,
      "Ġstruc": 2784,
      "Ġclear": 2785,
      "Ġmodern": 2786,
      "Ġbite": 2787,
      "ĠFrench": 2788,
      "ounced": 2789,
      "ĠGu": 2790,
      "Ġpeace": 2791,
      "raft": 2792,
      "ĠBar": 2793,
      "Ġadventures": 2794,
      "Ġposition": 2795,
      "Ġmat": 2796,
      "Ġorange": 2797,
      "Ġlonely": 2798,
      "Ġpock": 2799,
      "utes": 2800,
      "Ġnovel": 2801,
      "Ġwelcome": 2802,
      "Ġvict": 2803,
      "oss": 2804,
      "Ġdestroy": 2805,
      "Ġtelevision": 2806,
      "Ġemb": 2807,
      "vely": 2808,
      "Ġforget": 2809,
      "ointed": 2810,
      "Ġrainbow": 2811,
      "Ġblanket": 2812,
      "ique": 2813,
      "Ġsuddenly": 2814,
      "Ġlunch": 2815,
      "Ġvol": 2816,
      "Ġattack": 2817,
      "Ġwish": 2818,
      "Ġ2007": 2819,
      "ĠCanad": 2820,
      "Ġrefer": 2821,
      "Ġsounds": 2822,
      "Ġhuman": 2823,
      "pec": 2824,
      "resent": 2825,
      "ĠWhile": 2826,
      "Ġclapped": 2827,
      "ik": 2828,
      "ĠNe": 2829,
      "Ġnoises": 2830,
      "Ġwrite": 2831,
      "Ġhours": 2832,
      "Ġswings": 2833,
      "gram": 2834,
      "lebr": 2835,
      "Ġbee": 2836,
      "Ġauthor": 2837,
      "ĠDav": 2838,
      "Ġnothing": 2839,
      "Ġarg": 2840,
      "Ġearl": 2841,
      "St": 2842,
      "Ġpress": 2843,
      "ody": 2844,
      "Ġproduced": 2845,
      "Ġtravel": 2846,
      "een": 2847,
      "ern": 2848,
      "Ġmist": 2849,
      "Ġegg": 2850,
      "Ġinclude": 2851,
      "bruary": 2852,
      "ĠFebruary": 2853,
      "sel": 2854,
      "Mia": 2855,
      "reamed": 2856,
      "ishing": 2857,
      "Ġforward": 2858,
      "ears": 2859,
      "ĠEar": 2860,
      "Ġimpro": 2861,
      "Ġpassed": 2862,
      "ograph": 2863,
      "Ġcommun": 2864,
      "Ġcontrol": 2865,
      "Ġ23": 2866,
      "Ġeleph": 2867,
      "uitar": 2868,
      "Ġcelebr": 2869,
      "Ġdeterm": 2870,
      "ĠCr": 2871,
      "Ġcareer": 2872,
      "Ġwriting": 2873,
      "line": 2874,
      "Ġsum": 2875,
      "ably": 2876,
      "ĠState": 2877,
      "Ġcheered": 2878,
      "ĠComp": 2879,
      "Ġsuff": 2880,
      "Ġpra": 2881,
      "Ġworking": 2882,
      "Ġoccur": 2883,
      "Ġlim": 2884,
      "ccording": 2885,
      "Ġprof": 2886,
      "Ġinvol": 2887,
      "Ġ22": 2888,
      "Ġchurch": 2889,
      "iment": 2890,
      "oose": 2891,
      "ĠPark": 2892,
      "Ġreturn": 2893,
      "ĠEmma": 2894,
      "Ġsearch": 2895,
      "Finally": 2896,
      "Wh": 2897,
      "erry": 2898,
      "Ġap": 2899,
      "Ġimag": 2900,
      "iety": 2901,
      "nal": 2902,
      "Ġdet": 2903,
      "ĠThese": 2904,
      "Ġonto": 2905,
      "Ġla": 2906,
      "ĠSte": 2907,
      "Ġdriver": 2908,
      "work": 2909,
      "Ġaff": 2910,
      "Ġfence": 2911,
      "Ġmembers": 2912,
      "Ġrout": 2913,
      "Ġcost": 2914,
      "ogn": 2915,
      "Ġholding": 2916,
      "Ġshel": 2917,
      "Ġesc": 2918,
      "Lila": 2919,
      "Ġaf": 2920,
      "nings": 2921,
      "Ġexploring": 2922,
      "Ġgen": 2923,
      "Ġwave": 2924,
      "reek": 2925,
      "ĠX": 2926,
      "ĠTV": 2927,
      "ĠRed": 2928,
      "Ġlarg": 2929,
      "asted": 2930,
      "ĠMy": 2931,
      "Ġdefe": 2932,
      "Ġestabl": 2933,
      "Ġwise": 2934,
      "Ġpoor": 2935,
      "Ġgives": 2936,
      "Ġ24": 2937,
      "Ġmilitary": 2938,
      "ĠDaddy": 2939,
      "Ġtom": 2940,
      "atic": 2941,
      "ĠDon": 2942,
      "ĠWilliam": 2943,
      "sequ": 2944,
      "isc": 2945,
      "Ġmad": 2946,
      "Ġnose": 2947,
      "Ġcarried": 2948,
      "Ġproduction": 2949,
      "ider": 2950,
      "elly": 2951,
      "Ġhugs": 2952,
      "Ġgift": 2953,
      "ampions": 2954,
      "Ġcoll": 2955,
      "Ġpuzz": 2956,
      "Ġdiv": 2957,
      "adow": 2958,
      "iction": 2959,
      "Ġcave": 2960,
      "ĠMin": 2961,
      "Ġbackyard": 2962,
      "ustr": 2963,
      "Ġ2011": 2964,
      "Ġinflu": 2965,
      "Ġjourney": 2966,
      "Ġsoup": 2967,
      "Ġstreet": 2968,
      "stit": 2969,
      "Ġ190": 2970,
      "ĠMcC": 2971,
      "Ġpocket": 2972,
      "Ġsil": 2973,
      "Ġbought": 2974,
      "Ġcell": 2975,
      "omen": 2976,
      "Ġ26": 2977,
      "Ġ2006": 2978,
      "Ġrecogn": 2979,
      "Ġsal": 2980,
      "ades": 2981,
      "iff": 2982,
      "echn": 2983,
      "Ġ2012": 2984,
      "Ġfail": 2985,
      "icket": 2986,
      "Ġswam": 2987,
      "Ġtotal": 2988,
      "Ġsick": 2989,
      "ittens": 2990,
      "Ġcoin": 2991,
      "ending": 2992,
      "Ġresult": 2993,
      "Ġcritic": 2994,
      "Ġespec": 2995,
      "Ġespecially": 2996,
      "onom": 2997,
      "Ġnaught": 2998,
      "itty": 2999,
      "raid": 3000,
      "orthern": 3001,
      "Ġstated": 3002,
      "ĠCent": 3003,
      "Ġcreated": 3004,
      "Ġfighting": 3005,
      "Ġhorse": 3006,
      "ases": 3007,
      "ĠTw": 3008,
      "Ġcann": 3009,
      "Ġ&": 3010,
      "Ġsaying": 3011,
      "Ġtitle": 3012,
      "Ġble": 3013,
      "outhern": 3014,
      "amb": 3015,
      "Ġwee": 3016,
      "Ġben": 3017,
      "Ġshook": 3018,
      "Ġreported": 3019,
      "Ġnaughty": 3020,
      "men": 3021,
      "Ġself": 3022,
      "Ġwild": 3023,
      "Ġ28": 3024,
      "ĠGener": 3025,
      "Ġchange": 3026,
      "Ġstyle": 3027,
      "apan": 3028,
      "cl": 3029,
      "Ġtiny": 3030,
      "ites": 3031,
      "ĠCome": 3032,
      "Ġapple": 3033,
      "Ġban": 3034,
      "ĠSong": 3035,
      "Ġwhist": 3036,
      "ume": 3037,
      "Ġresul": 3038,
      "Ġdied": 3039,
      "Ġmail": 3040,
      "Ġmeant": 3041,
      "iers": 3042,
      "Ġplaces": 3043,
      "Ġkite": 3044,
      "Ġintroduc": 3045,
      "Ġrub": 3046,
      "Ġwoke": 3047,
      "Ġpay": 3048,
      "ĠBrown": 3049,
      "ospital": 3050,
      "head": 3051,
      "ĠJapan": 3052,
      "Ġbusy": 3053,
      "Ġstructure": 3054,
      "ief": 3055,
      "Ġpointed": 3056,
      "Ġwatching": 3057,
      "Ġsuper": 3058,
      "ĠAf": 3059,
      "illa": 3060,
      "ĠUniversity": 3061,
      "Ġdifficult": 3062,
      "Ġwife": 3063,
      "Ġhuge": 3064,
      "ĠPol": 3065,
      "Ġrob": 3066,
      "Ġ2013": 3067,
      "ĠLeague": 3068,
      "val": 3069,
      "Ġrepresent": 3070,
      "Ġafraid": 3071,
      "Ġcop": 3072,
      "ĠMe": 3073,
      "Ġexam": 3074,
      "Ġsitting": 3075,
      "ĠTheir": 3076,
      "ĠAm": 3077,
      "ĠAtl": 3078,
      "Ġjar": 3079,
      "airs": 3080,
      "Ġregular": 3081,
      "Ġminutes": 3082,
      "Ġships": 3083,
      "ĠGrandma": 3084,
      "Later": 3085,
      "empt": 3086,
      "Ġhistor": 3087,
      "selves": 3088,
      "ĠJames": 3089,
      "Ġabove": 3090,
      "iron": 3091,
      "lder": 3092,
      "ĠJust": 3093,
      "Ġbench": 3094,
      "Ġjuice": 3095,
      "And": 3096,
      "Ġeither": 3097,
      "Ġsignific": 3098,
      "ĠRoman": 3099,
      "Ġ50": 3100,
      "arn": 3101,
      "Ġgather": 3102,
      "Ġshr": 3103,
      "Ġremained": 3104,
      "Ġbegin": 3105,
      "Ġsepar": 3106,
      "Bob": 3107,
      "Do": 3108,
      "Ġtouc": 3109,
      "ression": 3110,
      "rent": 3111,
      "ĠSoon": 3112,
      "Ġmiles": 3113,
      "Ġlab": 3114,
      "Ġgoal": 3115,
      "Ġ27": 3116,
      "Ġshows": 3117,
      "Ġactiv": 3118,
      "com": 3119,
      "Ġhope": 3120,
      "ĠPort": 3121,
      "ĠPeter": 3122,
      "Ġjoined": 3123,
      "Ġsharp": 3124,
      "Of": 3125,
      "Ġsite": 3126,
      "Ġseven": 3127,
      "Ġexciting": 3128,
      "Ġthroughout": 3129,
      "ĠLond": 3130,
      "ceed": 3131,
      "Ġlaughing": 3132,
      "Ġpatient": 3133,
      "Ġallowed": 3134,
      "Ġrelieved": 3135,
      "icked": 3136,
      "Ġstep": 3137,
      "ument": 3138,
      "Ġweak": 3139,
      "angu": 3140,
      "Ġnational": 3141,
      "Ġstone": 3142,
      "ĠEx": 3143,
      "Ġplaced": 3144,
      "ĠInside": 3145,
      "ĠThank": 3146,
      "Ġshapes": 3147,
      "Ġwand": 3148,
      "isa": 3149,
      "Ġrul": 3150,
      "Ġprogram": 3151,
      "ĠAlthough": 3152,
      "ĠLondon": 3153,
      "ĠBill": 3154,
      "Ġbucket": 3155,
      "Ġfing": 3156,
      "Ġnoted": 3157,
      "Ġpopulation": 3158,
      "Ġft": 3159,
      "Ġmatter": 3160,
      "ĠFinally": 3161,
      "Ġanyone": 3162,
      "ĠChurch": 3163,
      "Ġpoints": 3164,
      "oot": 3165,
      "Ġwra": 3166,
      "Ġmind": 3167,
      "ĠAmerica": 3168,
      "nes": 3169,
      "idence": 3170,
      "ĠFin": 3171,
      "ĠRoy": 3172,
      "Ġdrive": 3173,
      "Ã¡": 3174,
      "Ġcute": 3175,
      "alion": 3176,
      "Ġmoving": 3177,
      "Ġwondered": 3178,
      "Ġinteresting": 3179,
      "gel": 3180,
      "ĠTweet": 3181,
      "Ġboard": 3182,
      "ancy": 3183,
      "Ġproblem": 3184,
      "Ġmachine": 3185,
      "Ġmass": 3186,
      "Ġplane": 3187,
      "Ġshell": 3188,
      "ĠGl": 3189,
      "ĠArmy": 3190,
      "Ġshoot": 3191,
      "Ġcannot": 3192,
      "Ġbecom": 3193,
      "Ġpoem": 3194,
      "Ġmilk": 3195,
      "Ġdeveloped": 3196,
      "Ġsuggested": 3197,
      "Ġtor": 3198,
      "Ġstage": 3199,
      "Ġspo": 3200,
      "Ġdiscovered": 3201,
      "Ġestablished": 3202,
      "Ġtun": 3203,
      "ready": 3204,
      "Ġmm": 3205,
      "oof": 3206,
      "Ġworks": 3207,
      "Ġstudy": 3208,
      "Ġforces": 3209,
      "ĠMiss": 3210,
      "Ġaccidentally": 3211,
      "ĠIf": 3212,
      "Ġfem": 3213,
      "Ġrare": 3214,
      "ĠMed": 3215,
      "Ġsunny": 3216,
      "Ġbirthday": 3217,
      "Ġelephant": 3218,
      "Ġbas": 3219,
      "Ġgrew": 3220,
      "rie": 3221,
      "ĠPro": 3222,
      "shine": 3223,
      "ĠJimmy": 3224,
      "Ġtropical": 3225,
      "Ġpudd": 3226,
      "Ġperformed": 3227,
      "Ġlangu": 3228,
      "ĠMus": 3229,
      "ĠCor": 3230,
      "Ġeffect": 3231,
      "Ġaward": 3232,
      "Ġbi": 3233,
      "elling": 3234,
      "ĠGeorge": 3235,
      "Ġtouched": 3236,
      "Ġbreat": 3237,
      "Ġentire": 3238,
      "ford": 3239,
      "light": 3240,
      "pa": 3241,
      "Ġign": 3242,
      "Ġbase": 3243,
      "ĠCal": 3244,
      "Ġareas": 3245,
      "ĠGod": 3246,
      "Ġcolour": 3247,
      "Ġswimming": 3248,
      "Ġcraw": 3249,
      "Ġcampa": 3250,
      "Ġcaused": 3251,
      "Ġalready": 3252,
      "ĠPe": 3253,
      "Ġoffice": 3254,
      "Ġmyster": 3255,
      "Ġpurple": 3256,
      "craft": 3257,
      "Ġstra": 3258,
      "Ġstation": 3259,
      "ills": 3260,
      "Ġvi": 3261,
      "Ġmixed": 3262,
      "Ġdanced": 3263,
      "Ġ!": 3264,
      "ĠEn": 3265,
      "aps": 3266,
      "Ġtrip": 3267,
      "Ġpowerful": 3268,
      "ĠAtlant": 3269,
      "Ġsaf": 3270,
      "Ġforever": 3271,
      "Ġdrink": 3272,
      "Ġindepend": 3273,
      "ael": 3274,
      "het": 3275,
      "ato": 3276,
      "Ġanc": 3277,
      "Ġgoes": 3278,
      "Ġsunshine": 3279,
      "ĠGeneral": 3280,
      "Al": 3281,
      "ille": 3282,
      "Ġplant": 3283,
      "Ġcompleted": 3284,
      "Ġfeather": 3285,
      "Ġprim": 3286,
      "Ġsurf": 3287,
      "Ġprotect": 3288,
      "fortable": 3289,
      "ĠAfric": 3290,
      "Ġgigg": 3291,
      "Ġfinish": 3292,
      "Ġ189": 3293,
      "Ġaccom": 3294,
      "Ġfootball": 3295,
      "ÃŃ": 3296,
      "Ġdi": 3297,
      "ption": 3298,
      "Ġvarious": 3299,
      "ampionship": 3300,
      "imately": 3301,
      "ĠRober": 3302,
      "Ġtechn": 3303,
      "ĠSim": 3304,
      "ĠMad": 3305,
      "Ġpromise": 3306,
      "Ġperformance": 3307,
      "cast": 3308,
      "Ġcoo": 3309,
      "Ġring": 3310,
      "Ġspread": 3311,
      "Ġpolice": 3312,
      "Ġsignificant": 3313,
      "Ġgiant": 3314,
      "ĠDes": 3315,
      "Ġspin": 3316,
      "Ġsnowman": 3317,
      "ĠCounty": 3318,
      "Ġcy": 3319,
      "ĠMag": 3320,
      "Ġage": 3321,
      "Ġquar": 3322,
      "yal": 3323,
      "Ġcheese": 3324,
      "Ġofficial": 3325,
      "Ġhar": 3326,
      "ĠSomet": 3327,
      "ging": 3328,
      "Ġbal": 3329,
      "Ġdevelopment": 3330,
      "Ġwearing": 3331,
      "ror": 3332,
      "hest": 3333,
      "Ġreve": 3334,
      "ĠAccording": 3335,
      "Ġdecl": 3336,
      "ivil": 3337,
      "Ġletter": 3338,
      "Ġterm": 3339,
      "Ġocean": 3340,
      "ĠIr": 3341,
      "Ġhello": 3342,
      "Ġfeed": 3343,
      "Ġrese": 3344,
      "Ġevents": 3345,
      "Ġguns": 3346,
      "Ġlucky": 3347,
      "Ġconstruction": 3348,
      "Ġhous": 3349,
      "Ġmonths": 3350,
      "Ġmid": 3351,
      "igade": 3352,
      "chie": 3353,
      "Ġaud": 3354,
      "Ġfaces": 3355,
      "Ġcand": 3356,
      "aser": 3357,
      "Ġbush": 3358,
      "ĠMama": 3359,
      "Ġsmo": 3360,
      "Ġserved": 3361,
      "Hey": 3362,
      "Ġdrum": 3363,
      "lect": 3364,
      "Ġsave": 3365,
      "Ġavail": 3366,
      "Ġneighbor": 3367,
      "Ġpolitical": 3368,
      "de": 3369,
      "Ġmountain": 3370,
      "Ġfort": 3371,
      "ĠMark": 3372,
      "ĠPer": 3373,
      "Ġcozy": 3374,
      "ublic": 3375,
      "Ġash": 3376,
      "ĠDan": 3377,
      "Ġbattle": 3378,
      "ky": 3379,
      "Ġpan": 3380,
      "Ġkilled": 3381,
      "Ġsmiling": 3382,
      "Ġbridge": 3383,
      "ĠOld": 3384,
      "Ġcharacters": 3385,
      "Ġbelieved": 3386,
      "za": 3387,
      "Ġwolf": 3388,
      "ĠRich": 3389,
      "Ġeye": 3390,
      "Ġbread": 3391,
      "Ġformed": 3392,
      "ylan": 3393,
      "kin": 3394,
      "Ġstret": 3395,
      "Ġengine": 3396,
      "ĠHigh": 3397,
      "ĠGo": 3398,
      "Ġsandw": 3399,
      "Ġsearched": 3400,
      "Ġcorner": 3401,
      "han": 3402,
      "Ġspoon": 3403,
      "ĠRep": 3404,
      "Ġsmaller": 3405,
      "Ġweeks": 3406,
      "ological": 3407,
      "uel": 3408,
      "Ġhealthy": 3409,
      "Ġrelations": 3410,
      "Ġelect": 3411,
      "Ġtalked": 3412,
      "Ġtalking": 3413,
      "enced": 3414,
      "ertain": 3415,
      "Ġforce": 3416,
      "roph": 3417,
      "Ġtells": 3418,
      "Ġfac": 3419,
      "Ġplayers": 3420,
      "Ġscar": 3421,
      "Ġtrue": 3422,
      "Ġproject": 3423,
      "Ġcovered": 3424,
      "Ġcampaign": 3425,
      "ĠHar": 3426,
      "ĠPaul": 3427,
      "Ġconn": 3428,
      "Ġmarket": 3429,
      "useum": 3430,
      "Ġborn": 3431,
      "Ġpill": 3432,
      "Ġgas": 3433,
      "unt": 3434,
      "Ġearlier": 3435,
      "Ġmiddle": 3436,
      "Ġrev": 3437,
      "Ġpred": 3438,
      "Ġveget": 3439,
      "Ġclouds": 3440,
      "Lucy": 3441,
      "azine": 3442,
      "Ġtries": 3443,
      "Ġbottle": 3444,
      "iated": 3445,
      "ĠMittens": 3446,
      "Ġstanding": 3447,
      "idden": 3448,
      "Ġtasty": 3449,
      "ĠCo": 3450,
      "Ġbutton": 3451,
      "ĠPet": 3452,
      "Ġtrust": 3453,
      "Ġtradition": 3454,
      "Ġhospital": 3455,
      "vert": 3456,
      "amer": 3457,
      "Ġlog": 3458,
      "ella": 3459,
      "ables": 3460,
      "ĠRoad": 3461,
      "iest": 3462,
      "ests": 3463,
      "Ġknee": 3464,
      "medi": 3465,
      "Ġquestion": 3466,
      "oub": 3467,
      "Ġthick": 3468,
      "icated": 3469,
      "ecut": 3470,
      "ĠPen": 3471,
      "Ġ29": 3472,
      "Ġputs": 3473,
      "Ġdisappear": 3474,
      "Ġobser": 3475,
      "Ġcow": 3476,
      "ĠPal": 3477,
      "Ġcase": 3478,
      "Ġrange": 3479,
      "ĠMor": 3480,
      "Ġloves": 3481,
      "Ġdecor": 3482,
      "Ġemp": 3483,
      "Ġconfused": 3484,
      "Good": 3485,
      "iber": 3486,
      "Ġ2005": 3487,
      "Ġattr": 3488,
      "ency": 3489,
      "Ġzoom": 3490,
      "round": 3491,
      "inc": 3492,
      "arch": 3493,
      "Ġthemselves": 3494,
      "ivid": 3495,
      "Ġteeth": 3496,
      "ĠSammy": 3497,
      "Ġcollect": 3498,
      "Ġrolled": 3499,
      "Ġaver": 3500,
      "Ġpool": 3501,
      "ĠFred": 3502,
      "ĠIndian": 3503,
      "Ġavailable": 3504,
      "reg": 3505,
      "reland": 3506,
      "Ġleast": 3507,
      "Ġleaving": 3508,
      "ization": 3509,
      "Ġhoney": 3510,
      "ĠSw": 3511,
      "oles": 3512,
      "Ġitself": 3513,
      "ĠReg": 3514,
      "ĠIsland": 3515,
      "Ġviol": 3516,
      "Ġfear": 3517,
      "ashed": 3518,
      "Ġdrew": 3519,
      "Ġmov": 3520,
      "Ġdead": 3521,
      "Ġzoo": 3522,
      "rest": 3523,
      "Ġpack": 3524,
      "Ġmater": 3525,
      "ĠSec": 3526,
      "There": 3527,
      "ĠDylan": 3528,
      "Ġtrouble": 3529,
      "Ġattempt": 3530,
      "hys": 3531,
      "ĠMo": 3532,
      "ols": 3533,
      "Ġgray": 3534,
      "Ġwaiting": 3535,
      "Ġannounced": 3536,
      "Ġcrayons": 3537,
      "aked": 3538,
      "field": 3539,
      "Ġbat": 3540,
      "oura": 3541,
      "Ġrelig": 3542,
      "Ġspotted": 3543,
      "omb": 3544,
      "ĠRec": 3545,
      "Ġsurv": 3546,
      "Ġsmelled": 3547,
      "itted": 3548,
      "iser": 3549,
      "Ġnames": 3550,
      "Ġbeg": 3551,
      "Ġstren": 3552,
      "Ġscreen": 3553,
      "ffic": 3554,
      "ĠThom": 3555,
      "Ġlocated": 3556,
      "ĠAir": 3557,
      "Ġmeasure": 3558,
      "Ġprocess": 3559,
      "Ġdistance": 3560,
      "ĠJenny": 3561,
      "ĠAustralia": 3562,
      "aled": 3563,
      "Ġnumbers": 3564,
      "Ġgiving": 3565,
      "mar": 3566,
      "Ġident": 3567,
      "ico": 3568,
      "ĠIreland": 3569,
      "pted": 3570,
      "Ġsize": 3571,
      "Ġoffered": 3572,
      "ĠâĢĻ": 3573,
      "Ġfixed": 3574,
      "Ġinsp": 3575,
      "Ġducks": 3576,
      "Ġlovely": 3577,
      "Ġdig": 3578,
      "Ġrope": 3579,
      "Ġgod": 3580,
      "ĠEven": 3581,
      "Ġcomment": 3582,
      "Ġpush": 3583,
      "Ġfif": 3584,
      "ĠEll": 3585,
      "Ġcoast": 3586,
      "Ġ188": 3587,
      "Ġhurricane": 3588,
      "Ġdiscuss": 3589,
      "fall": 3590,
      "ĠHa": 3591,
      "Ġscored": 3592,
      "Ġ2004": 3593,
      "Come": 3594,
      "Ġpile": 3595,
      "Ġlif": 3596,
      "Ġhelpful": 3597,
      "Ġsnake": 3598,
      "Ġcouch": 3599,
      "Ġstreng": 3600,
      "ality": 3601,
      "Ġbroad": 3602,
      "Ġachie": 3603,
      "Ġur": 3604,
      "Ġjog": 3605,
      "ha": 3606,
      "now": 3607,
      "lex": 3608,
      "Ġteach": 3609,
      "Ġfeatures": 3610,
      "ĠSy": 3611,
      "ĠHen": 3612,
      "Ġchanged": 3613,
      "Ġdetermined": 3614,
      "Ġpil": 3615,
      "Ġseat": 3616,
      "Ġmole": 3617,
      "ĠKe": 3618,
      "assed": 3619,
      "Ġrespons": 3620,
      "arian": 3621,
      "Ġcoat": 3622,
      "ĠDavid": 3623,
      "cy": 3624,
      "cent": 3625,
      "Ġbell": 3626,
      "Ġlad": 3627,
      "ado": 3628,
      "Ġspace": 3629,
      "Ġhost": 3630,
      "Tommy": 3631,
      "Ġcapt": 3632,
      "Ġphone": 3633,
      "ĠBlack": 3634,
      "Ġrough": 3635,
      "Ġ31": 3636,
      "ample": 3637,
      "Ġassoc": 3638,
      "Ġgently": 3639,
      "Ġnon": 3640,
      "Ġshining": 3641,
      "Ġdisplay": 3642,
      "Ġ40": 3643,
      "Ġclever": 3644,
      "jects": 3645,
      "Ġnut": 3646,
      "Ġnature": 3647,
      "Ġexample": 3648,
      "Ġcloth": 3649,
      "Ġpraised": 3650,
      "Ġwomen": 3651,
      "Ġsack": 3652,
      "ĠAss": 3653,
      "Ġcalling": 3654,
      "Ġnorm": 3655,
      "ĠBo": 3656,
      "Ġloss": 3657,
      "ocol": 3658,
      "Ġmeans": 3659,
      "ĠOl": 3660,
      "Ġprevent": 3661,
      "oday": 3662,
      "Ġending": 3663,
      "Ġsmooth": 3664,
      "Ġstir": 3665,
      "Ġblock": 3666,
      "ĠAnn": 3667,
      "Ġcritics": 3668,
      "Ġ186": 3669,
      "Ġattemp": 3670,
      "ustrated": 3671,
      "Ġfre": 3672,
      "Ġfoc": 3673,
      "ĠRose": 3674,
      "Ġaircraft": 3675,
      "Ġphot": 3676,
      "Ġrobot": 3677,
      "Ġaction": 3678,
      "Ġmotor": 3679,
      "Ġpin": 3680,
      "Ġasleep": 3681,
      "astic": 3682,
      "Ġseek": 3683,
      "Ġregion": 3684,
      "Ġindivid": 3685,
      "form": 3686,
      "ano": 3687,
      "Ġstood": 3688,
      "ully": 3689,
      "Ġcontent": 3690,
      "Ġleading": 3691,
      "aded": 3692,
      "Ġremind": 3693,
      "Ġearth": 3694,
      "Ġobject": 3695,
      "empor": 3696,
      "Ġpuzzle": 3697,
      "ĠRoyal": 3698,
      "Ġoven": 3699,
      "Ġcompl": 3700,
      "Ġdamage": 3701,
      "Ġpossible": 3702,
      "Ġtaste": 3703,
      "Ġrather": 3704,
      "ĠWal": 3705,
      "Ġmanaged": 3706,
      "Ġmoon": 3707,
      "Ġdebut": 3708,
      "Ġcomplete": 3709,
      "ĠTown": 3710,
      "iled": 3711,
      "Ġyet": 3712,
      "aker": 3713,
      "Ġ185": 3714,
      "Ġinvest": 3715,
      "Ġmissed": 3716,
      "Ġfigure": 3717,
      "Ġembarr": 3718,
      "Ġtaught": 3719,
      "Ġtasted": 3720,
      "ino": 3721,
      "ari": 3722,
      "Ġmud": 3723,
      "Ġplants": 3724,
      "Ġextra": 3725,
      "Ġanswer": 3726,
      "under": 3727,
      "Ġsuit": 3728,
      "Ġpir": 3729,
      "rab": 3730,
      "oph": 3731,
      "ĠPat": 3732,
      "Ġchocol": 3733,
      "Ġproper": 3734,
      "Ġpretended": 3735,
      "Ġbuildings": 3736,
      "Ġcreate": 3737,
      "ength": 3738,
      "Ġmic": 3739,
      "oted": 3740,
      "aven": 3741,
      "Ġspeed": 3742,
      "ĠTur": 3743,
      "Ġwhenever": 3744,
      "Ġmagn": 3745,
      "Ġoriginally": 3746,
      "Every": 3747,
      "Ġsouthern": 3748,
      "Ġdirt": 3749,
      "Ġ2003": 3750,
      "Ġlanded": 3751,
      "Ġprovided": 3752,
      "ĠKingdom": 3753,
      "ĠSometimes": 3754,
      "ucle": 3755,
      "Ġscreamed": 3756,
      "antry": 3757,
      "Ġfourth": 3758,
      "Ġfurry": 3759,
      "Ġroute": 3760,
      "Ġrelationship": 3761,
      "Ġhero": 3762,
      "Ġrat": 3763,
      "Ġended": 3764,
      "Ġorganized": 3765,
      "ĠCompany": 3766,
      "ida": 3767,
      "rib": 3768,
      "Ġfamous": 3769,
      "Ġprofess": 3770,
      "Ġmaterial": 3771,
      "Ġwore": 3772,
      "Ġscore": 3773,
      "Ġdev": 3774,
      "Ġsurround": 3775,
      "ĠChristian": 3776,
      "ashing": 3777,
      "Ġkick": 3778,
      "Ġchick": 3779,
      "Ġglass": 3780,
      "Ġrocket": 3781,
      "Ġforgive": 3782,
      "Ġservice": 3783,
      "Just": 3784,
      "Ġcrew": 3785,
      "Ġgar": 3786,
      "ĠEnd": 3787,
      "Ġcalm": 3788,
      "Ġec": 3789,
      "Ġcommer": 3790,
      "Ġcreative": 3791,
      "ĠLa": 3792,
      "Ġshot": 3793,
      "Ġestim": 3794,
      "Ġlanguage": 3795,
      "rang": 3796,
      "Ġfa": 3797,
      "ĠSus": 3798,
      "Ġnote": 3799,
      "Ġpray": 3800,
      "Ġgenerally": 3801,
      "ĠAustralian": 3802,
      "Ġhom": 3803,
      "ĠMill": 3804,
      "Ġgeneral": 3805,
      "Ġblow": 3806,
      "elp": 3807,
      "ĠDay": 3808,
      "Ġlegs": 3809,
      "Ġparticularly": 3810,
      "Ġancient": 3811,
      "ĠRobert": 3812,
      "Ġchocolate": 3813,
      "Ġill": 3814,
      "Ġhiding": 3815,
      "Ġhidden": 3816,
      "ential": 3817,
      "Ġradio": 3818,
      "olution": 3819,
      "Ġshore": 3820,
      "Ġscr": 3821,
      "Ġflood": 3822,
      "Ġdesigned": 3823,
      "Jim": 3824,
      "inary": 3825,
      "Ġpour": 3826,
      "ston": 3827,
      "istic": 3828,
      "ĠIntern": 3829,
      "Ġcarrot": 3830,
      "Ġvictory": 3831,
      "Ġtomorrow": 3832,
      "ators": 3833,
      "acy": 3834,
      "Ġunique": 3835,
      "nown": 3836,
      "leg": 3837,
      "ighed": 3838,
      "Ġshirt": 3839,
      "Ġstring": 3840,
      "Ġ2014": 3841,
      "Ġ2015": 3842,
      "ÅĵI": 3843,
      "Molly": 3844,
      "Ġaut": 3845,
      "Ġconv": 3846,
      "Ġparts": 3847,
      "ipe": 3848,
      "Ġserious": 3849,
      "Ġeastern": 3850,
      "Ġblew": 3851,
      "lies": 3852,
      "Ġfund": 3853,
      "iger": 3854,
      "rey": 3855,
      "ĠTe": 3856,
      "Ġeager": 3857,
      "hod": 3858,
      "sy": 3859,
      "Ġdiam": 3860,
      "ica": 3861,
      "Ġshy": 3862,
      "Ġspir": 3863,
      "ights": 3864,
      "Ġsummer": 3865,
      "hood": 3866,
      "Ġmer": 3867,
      "ĠAct": 3868,
      "urg": 3869,
      "Ġappearance": 3870,
      "Ġwid": 3871,
      "Ġmember": 3872,
      "ĠSom": 3873,
      "Ġsex": 3874,
      "ĠVal": 3875,
      "Ġsquare": 3876,
      "cil": 3877,
      "Ġreac": 3878,
      "ĠAre": 3879,
      "ĠPres": 3880,
      "Ġpractice": 3881,
      "ĠSmith": 3882,
      "ĠHouse": 3883,
      "Ġunl": 3884,
      "Ġtea": 3885,
      "ĠAlice": 3886,
      "Ġopening": 3887,
      "ĠFlor": 3888,
      "box": 3889,
      "Ġpuddle": 3890,
      "ĠLittle": 3891,
      "Ġspicy": 3892,
      "Ġcart": 3893,
      "Ġapples": 3894,
      "ĠLisa": 3895,
      "Ġseed": 3896,
      "ĠJennings": 3897,
      "Ġlength": 3898,
      "Ġwash": 3899,
      "Ġguitar": 3900,
      "ĠDr": 3901,
      "ĠKitty": 3902,
      "ollowing": 3903,
      "ĠJew": 3904,
      "Ġexist": 3905,
      "Ġpeaceful": 3906,
      "Now": 3907,
      "ration": 3908,
      "Ġchart": 3909,
      "Ġknocked": 3910,
      "Ġedge": 3911,
      "Ġlit": 3912,
      "Ġreb": 3913,
      "oops": 3914,
      "ĠEv": 3915,
      "Ġcheer": 3916,
      "Ġregard": 3917,
      "Ġcookie": 3918,
      "Ġdirected": 3919,
      "nt": 3920,
      "Ġtem": 3921,
      "Ġfut": 3922,
      "Ġcere": 3923,
      "Ġunus": 3924,
      "Ġimmedi": 3925,
      "Ġwalls": 3926,
      "ĠMichael": 3927,
      "ĠTwo": 3928,
      "Ġtent": 3929,
      "Ġhang": 3930,
      "ĠMex": 3931,
      "Ġneg": 3932,
      "ploy": 3933,
      "lower": 3934,
      "Ġintern": 3935,
      "Ġelements": 3936,
      "Ġsubsequ": 3937,
      "Ġsymb": 3938,
      "Ġdepend": 3939,
      "Ġrefused": 3940,
      "Ġeasy": 3941,
      "Soon": 3942,
      "ru": 3943,
      "rag": 3944,
      "Ġstrugg": 3945,
      "Ġreplaced": 3946,
      "Ġbugs": 3947,
      "Ġfeatured": 3948,
      "ĠÂ°": 3949,
      "Ġhouses": 3950,
      "My": 3951,
      "Ġmel": 3952,
      "Ġnucle": 3953,
      "acing": 3954,
      "Ġsoc": 3955,
      "olves": 3956,
      "Ġsnack": 3957,
      "Ġclaim": 3958,
      "ĠThomas": 3959,
      "Mum": 3960,
      "ĠFeder": 3961,
      "Ġprep": 3962,
      "Ġpicn": 3963,
      "Ġhighway": 3964,
      "Ġmaybe": 3965,
      "ungle": 3966,
      "Ġmysterious": 3967,
      "Ġhid": 3968,
      "ago": 3969,
      "ĠEmily": 3970,
      "atural": 3971,
      "Ġmention": 3972,
      "ĠSqu": 3973,
      "achel": 3974,
      "Ġvoc": 3975,
      "action": 3976,
      "Ġbusiness": 3977,
      "Ġterrit": 3978,
      "Ġtightly": 3979,
      "Ġladder": 3980,
      "hi": 3981,
      "omm": 3982,
      "ĠBur": 3983,
      "Ġusually": 3984,
      "ĠFrance": 3985,
      "ĠPhil": 3986,
      "Ġboun": 3987,
      "Ġpow": 3988,
      "Ġsticks": 3989,
      "Ġprob": 3990,
      "iano": 3991,
      "Ġexpensive": 3992,
      "Ġintroduced": 3993,
      "ĠHenry": 3994,
      "ĠHall": 3995,
      "Ġplate": 3996,
      "Ġjungle": 3997,
      "ube": 3998,
      "Ġjumping": 3999,
      "Ġmetal": 4000,
      "Ġdrawing": 4001,
      "Ġinform": 4002,
      "Ġsitu": 4003,
      "Ġcurrent": 4004,
      "Ġneckl": 4005,
      "stant": 4006,
      "Be": 4007,
      "go": 4008,
      "ĠJake": 4009,
      "resh": 4010,
      "Ġshelf": 4011,
      "Ġwhistle": 4012,
      "ĠSan": 4013,
      "icle": 4014,
      "ĠLove": 4015,
      "ola": 4016,
      "ĠEast": 4017,
      "ĠStreet": 4018,
      "Ġhighest": 4019,
      "ires": 4020,
      "Ġsaved": 4021,
      "Ġdirector": 4022,
      "ĠTogether": 4023,
      "co": 4024,
      "Ġbatter": 4025,
      "isk": 4026,
      "ota": 4027,
      "ĠCup": 4028,
      "roc": 4029,
      "ords": 4030,
      "ĠJohnny": 4031,
      "west": 4032,
      "Ġharm": 4033,
      "Ġ187": 4034,
      "Ġcentral": 4035,
      "Ġindust": 4036,
      "Ġdisappointed": 4037,
      "Ġembarrassed": 4038,
      "liam": 4039,
      "ti": 4040,
      "ishes": 4041,
      "Ġresc": 4042,
      "ĠBlue": 4043,
      "gly": 4044,
      "off": 4045,
      "wood": 4046,
      "hem": 4047,
      "Ġhy": 4048,
      "ĠSer": 4049,
      "Ġchest": 4050,
      "rict": 4051,
      "Ġdinosaur": 4052,
      "ĠPlay": 4053,
      "met": 4054,
      "Ġtid": 4055,
      "Ġsigned": 4056,
      "Ġfill": 4057,
      "enn": 4058,
      "ĠSun": 4059,
      "ĠHam": 4060,
      "ĠAlex": 4061,
      "ibility": 4062,
      "Ġmarried": 4063,
      "Ġcreature": 4064,
      "Ġsheep": 4065,
      "ĠRob": 4066,
      "artment": 4067,
      "Ġ500": 4068,
      "ĠBattalion": 4069,
      "Ġeggs": 4070,
      "aks": 4071,
      "Ġmi": 4072,
      "Ġones": 4073,
      "Ġugly": 4074,
      "Ġshape": 4075,
      "ĠWhite": 4076,
      "Ġlower": 4077,
      "Ġinj": 4078,
      "Ġnerv": 4079,
      "acter": 4080,
      "ugar": 4081,
      "ĠStar": 4082,
      "Ġunderstood": 4083,
      "Ġcounter": 4084,
      "ĠQu": 4085,
      "Ġsilver": 4086,
      "Ġpicnic": 4087,
      "Ġnervous": 4088,
      "ĠBra": 4089,
      "Ġwriter": 4090,
      "Ġsett": 4091,
      "BC": 4092,
      "Ġnorthern": 4093,
      "lected": 4094,
      "ĠCong": 4095
    },
    "merges": [
      [
        "Ġ",
        "t"
      ],
      [
        "h",
        "e"
      ],
      [
        "Ġ",
        "a"
      ],
      [
        "Ġ",
        "s"
      ],
      [
        "Ġt",
        "he"
      ],
      [
        "Ġ",
        "w"
      ],
      [
        "n",
        "d"
      ],
      [
        "i",
        "n"
      ],
      [
        "e",
        "d"
      ],
      [
        "e",
        "r"
      ],
      [
        "Ġa",
        "nd"
      ],
      [
        "Ġ",
        "b"
      ],
      [
        "Ġt",
        "o"
      ],
      [
        "r",
        "e"
      ],
      [
        "Ġ",
        "o"
      ],
      [
        "Ġ",
        "f"
      ],
      [
        "i",
        "t"
      ],
      [
        "Ġ",
        "h"
      ],
      [
        "Ġ",
        "c"
      ],
      [
        "a",
        "s"
      ],
      [
        "o",
        "u"
      ],
      [
        "a",
        "t"
      ],
      [
        "Ġ",
        "p"
      ],
      [
        "Ġ",
        "d"
      ],
      [
        "a",
        "r"
      ],
      [
        "i",
        "s"
      ],
      [
        "o",
        "n"
      ],
      [
        "a",
        "n"
      ],
      [
        "Ġ",
        "m"
      ],
      [
        "Ġ",
        "l"
      ],
      [
        "e",
        "n"
      ],
      [
        "in",
        "g"
      ],
      [
        "o",
        "r"
      ],
      [
        "o",
        "m"
      ],
      [
        "Ġ",
        "T"
      ],
      [
        "Ġ",
        "he"
      ],
      [
        "Ġw",
        "as"
      ],
      [
        "e",
        "s"
      ],
      [
        "i",
        "l"
      ],
      [
        "Ġ",
        ","
      ],
      [
        "a",
        "l"
      ],
      [
        "a",
        "y"
      ],
      [
        "Ġ",
        "in"
      ],
      [
        "Ġ",
        "g"
      ],
      [
        "Ġo",
        "f"
      ],
      [
        "i",
        "d"
      ],
      [
        "Ġ",
        "n"
      ],
      [
        "Ġ",
        "S"
      ],
      [
        "Ġt",
        "h"
      ],
      [
        "a",
        "d"
      ],
      [
        "ĠT",
        "he"
      ],
      [
        "Ġ",
        "."
      ],
      [
        "i",
        "m"
      ],
      [
        "l",
        "e"
      ],
      [
        "i",
        "c"
      ],
      [
        "u",
        "t"
      ],
      [
        "o",
        "t"
      ],
      [
        "e",
        "t"
      ],
      [
        "Ġ",
        "H"
      ],
      [
        "Ġ",
        "it"
      ],
      [
        "i",
        "r"
      ],
      [
        "Ġ",
        "\""
      ],
      [
        "Ġ",
        "e"
      ],
      [
        "Ġs",
        "a"
      ],
      [
        "e",
        "l"
      ],
      [
        "o",
        "w"
      ],
      [
        "v",
        "er"
      ],
      [
        "a",
        "m"
      ],
      [
        "a",
        "c"
      ],
      [
        "i",
        "g"
      ],
      [
        "en",
        "t"
      ],
      [
        "Ġhe",
        "r"
      ],
      [
        "Ġo",
        "n"
      ],
      [
        "u",
        "n"
      ],
      [
        "Ġb",
        "e"
      ],
      [
        "Ġ",
        "I"
      ],
      [
        "Ġs",
        "t"
      ],
      [
        "Ġ",
        "r"
      ],
      [
        "it",
        "h"
      ],
      [
        "Ġ",
        "re"
      ],
      [
        "v",
        "e"
      ],
      [
        "l",
        "y"
      ],
      [
        "Ġw",
        "ith"
      ],
      [
        "ĠH",
        "e"
      ],
      [
        "l",
        "d"
      ],
      [
        "ĠS",
        "he"
      ],
      [
        "i",
        "on"
      ],
      [
        "Ġh",
        "a"
      ],
      [
        "o",
        "o"
      ],
      [
        "s",
        "t"
      ],
      [
        "Ġ",
        "L"
      ],
      [
        "Ġth",
        "at"
      ],
      [
        "Ġ",
        "y"
      ],
      [
        "Ġ",
        "u"
      ],
      [
        "Ġf",
        "or"
      ],
      [
        "Ġ",
        "B"
      ],
      [
        "r",
        "i"
      ],
      [
        "p",
        "p"
      ],
      [
        "ĠThe",
        "y"
      ],
      [
        "Ġh",
        "is"
      ],
      [
        "Ġ",
        "A"
      ],
      [
        "Ġ",
        "M"
      ],
      [
        "k",
        "e"
      ],
      [
        "il",
        "y"
      ],
      [
        "Ġsa",
        "id"
      ],
      [
        "u",
        "r"
      ],
      [
        "Ġp",
        "l"
      ],
      [
        "k",
        "ed"
      ],
      [
        "t",
        "ed"
      ],
      [
        "Ġs",
        "he"
      ],
      [
        "c",
        "e"
      ],
      [
        "Ġa",
        "s"
      ],
      [
        "O",
        "n"
      ],
      [
        "Ġw",
        "h"
      ],
      [
        "Ġs",
        "o"
      ],
      [
        "he",
        "r"
      ],
      [
        "Ġa",
        "l"
      ],
      [
        "e",
        "c"
      ],
      [
        "t",
        "er"
      ],
      [
        "Ġy",
        "ou"
      ],
      [
        "Ġ",
        "is"
      ],
      [
        "Ġh",
        "ad"
      ],
      [
        "o",
        "l"
      ],
      [
        "ver",
        "y"
      ],
      [
        "Ġd",
        "ay"
      ],
      [
        "s",
        "e"
      ],
      [
        "u",
        "l"
      ],
      [
        "Ġa",
        "n"
      ],
      [
        "Ġ",
        "1"
      ],
      [
        "Ġpl",
        "ay"
      ],
      [
        "Ġu",
        "p"
      ],
      [
        "Ġ",
        "C"
      ],
      [
        "Ġthe",
        "y"
      ],
      [
        "Ġs",
        "h"
      ],
      [
        "c",
        "h"
      ],
      [
        "ou",
        "ld"
      ],
      [
        "Ġ",
        "@"
      ],
      [
        "ĠL",
        "ily"
      ],
      [
        "r",
        "o"
      ],
      [
        "T",
        "he"
      ],
      [
        "Ġa",
        "t"
      ],
      [
        "Ġn",
        "ot"
      ],
      [
        "ou",
        "nd"
      ],
      [
        "Ġ",
        "k"
      ],
      [
        "Ġm",
        "om"
      ],
      [
        "a",
        "in"
      ],
      [
        "h",
        "t"
      ],
      [
        "er",
        "e"
      ],
      [
        "m",
        "y"
      ],
      [
        "Ġl",
        "i"
      ],
      [
        "om",
        "e"
      ],
      [
        "Ġn",
        "e"
      ],
      [
        "e",
        "nd"
      ],
      [
        "Ġw",
        "ere"
      ],
      [
        "it",
        "t"
      ],
      [
        "im",
        "e"
      ],
      [
        "r",
        "om"
      ],
      [
        "al",
        "l"
      ],
      [
        "'",
        "s"
      ],
      [
        "o",
        "re"
      ],
      [
        "ac",
        "k"
      ],
      [
        "r",
        "a"
      ],
      [
        "Ġb",
        "ut"
      ],
      [
        "Ġs",
        "e"
      ],
      [
        "Ġha",
        "pp"
      ],
      [
        "il",
        "l"
      ],
      [
        "Ġ",
        "J"
      ],
      [
        "Ġw",
        "an"
      ],
      [
        "Ġt",
        "ime"
      ],
      [
        "u",
        "m"
      ],
      [
        "Ġ",
        "'"
      ],
      [
        "ar",
        "d"
      ],
      [
        "Ġ",
        "W"
      ],
      [
        "v",
        "ed"
      ],
      [
        "ĠI",
        "t"
      ],
      [
        "id",
        "e"
      ],
      [
        "r",
        "y"
      ],
      [
        "Ġthe",
        "re"
      ],
      [
        "Ġ",
        "very"
      ],
      [
        "Ġa",
        "re"
      ],
      [
        "Ġd",
        "o"
      ],
      [
        "itt",
        "le"
      ],
      [
        "-",
        "@"
      ],
      [
        "Ġ@",
        "-@"
      ],
      [
        "u",
        "g"
      ],
      [
        "Ġl",
        "ittle"
      ],
      [
        "a",
        "g"
      ],
      [
        "Ġs",
        "m"
      ],
      [
        "Ġl",
        "o"
      ],
      [
        "Ġe",
        "x"
      ],
      [
        "t",
        "h"
      ],
      [
        "Ġ",
        "D"
      ],
      [
        "Ġb",
        "ig"
      ],
      [
        "Ġhapp",
        "y"
      ],
      [
        "Ġs",
        "p"
      ],
      [
        "u",
        "s"
      ],
      [
        "a",
        "ke"
      ],
      [
        "ri",
        "end"
      ],
      [
        "Ġf",
        "riend"
      ],
      [
        "i",
        "f"
      ],
      [
        "u",
        "c"
      ],
      [
        "Ġsa",
        "w"
      ],
      [
        "es",
        "t"
      ],
      [
        "Ġ",
        "Ċ"
      ],
      [
        "Ġ",
        "F"
      ],
      [
        "i",
        "nd"
      ],
      [
        "Ġthe",
        "ir"
      ],
      [
        "o",
        "p"
      ],
      [
        "On",
        "e"
      ],
      [
        "at",
        "ion"
      ],
      [
        ".",
        "\""
      ],
      [
        "Ġh",
        "im"
      ],
      [
        "Ġg",
        "o"
      ],
      [
        "Ġ",
        "P"
      ],
      [
        "Ġb",
        "y"
      ],
      [
        "Ġf",
        "rom"
      ],
      [
        "Ġ",
        "j"
      ],
      [
        "Ġa",
        "r"
      ],
      [
        "he",
        "n"
      ],
      [
        "Ġ",
        "2"
      ],
      [
        "Ġb",
        "o"
      ],
      [
        "on",
        "g"
      ],
      [
        "e",
        "ar"
      ],
      [
        "ou",
        "g"
      ],
      [
        "Ġo",
        "ut"
      ],
      [
        "Ġl",
        "oo"
      ],
      [
        "a",
        "nd"
      ],
      [
        "'",
        "t"
      ],
      [
        "am",
        "e"
      ],
      [
        "Ġha",
        "ve"
      ],
      [
        "Ġthe",
        "m"
      ],
      [
        "he",
        "d"
      ],
      [
        "er",
        "s"
      ],
      [
        "Ġ",
        "E"
      ],
      [
        "ig",
        "ht"
      ],
      [
        "On",
        "ce"
      ],
      [
        "!",
        "\""
      ],
      [
        "Ġto",
        "o"
      ],
      [
        "w",
        "ay"
      ],
      [
        "ĠT",
        "im"
      ],
      [
        "Ġ",
        "R"
      ],
      [
        "e",
        "m"
      ],
      [
        "Ġc",
        "on"
      ],
      [
        "u",
        "re"
      ],
      [
        "el",
        "l"
      ],
      [
        "Ġc",
        "l"
      ],
      [
        "Ġ",
        "v"
      ],
      [
        "ir",
        "l"
      ],
      [
        "Ġup",
        "on"
      ],
      [
        "Ġal",
        "l"
      ],
      [
        "is",
        "t"
      ],
      [
        "u",
        "d"
      ],
      [
        "Ġwan",
        "ted"
      ],
      [
        "Ġ",
        "G"
      ],
      [
        "Ġ",
        "N"
      ],
      [
        "Ġc",
        "h"
      ],
      [
        "Ġd",
        "id"
      ],
      [
        "Ġc",
        "ould"
      ],
      [
        "oo",
        "d"
      ],
      [
        "a",
        "b"
      ],
      [
        "a",
        "re"
      ],
      [
        "o",
        "s"
      ],
      [
        "Ġg",
        "irl"
      ],
      [
        "Ġc",
        "an"
      ],
      [
        "q",
        "u"
      ],
      [
        "Ġp",
        "ar"
      ],
      [
        "Ġk",
        "n"
      ],
      [
        "Ġ",
        ")"
      ],
      [
        "Ġ",
        "("
      ],
      [
        "Ġc",
        "om"
      ],
      [
        "Ġs",
        "c"
      ],
      [
        "es",
        "s"
      ],
      [
        "on",
        "e"
      ],
      [
        "t",
        "her"
      ],
      [
        "ow",
        "n"
      ],
      [
        "Ġhe",
        "l"
      ],
      [
        "Ġsm",
        "il"
      ],
      [
        "i",
        "e"
      ],
      [
        "un",
        "k"
      ],
      [
        "Ġm",
        "an"
      ],
      [
        "Ġ1",
        "9"
      ],
      [
        "am",
        "ed"
      ],
      [
        "Ġw",
        "ent"
      ],
      [
        "at",
        "e"
      ],
      [
        "Ġw",
        "or"
      ],
      [
        "Ġo",
        "r"
      ],
      [
        "t",
        "s"
      ],
      [
        "al",
        "ly"
      ],
      [
        "Ġn",
        "o"
      ],
      [
        "o",
        "c"
      ],
      [
        "k",
        "s"
      ],
      [
        "a",
        "p"
      ],
      [
        "ĠB",
        "en"
      ],
      [
        "e",
        "p"
      ],
      [
        "Ġhel",
        "p"
      ],
      [
        "Ġa",
        "g"
      ],
      [
        "Ġst",
        "ar"
      ],
      [
        "Ġb",
        "ack"
      ],
      [
        "as",
        "t"
      ],
      [
        "ad",
        "e"
      ],
      [
        "a",
        "k"
      ],
      [
        "u",
        "st"
      ],
      [
        "i",
        "es"
      ],
      [
        "0",
        "0"
      ],
      [
        "Ġfriend",
        "s"
      ],
      [
        "ic",
        "e"
      ],
      [
        "re",
        "e"
      ],
      [
        "Ġw",
        "ould"
      ],
      [
        "Ġ",
        "<"
      ],
      [
        "?",
        "\""
      ],
      [
        "f",
        "ul"
      ],
      [
        "Ġn",
        "amed"
      ],
      [
        "ou",
        "s"
      ],
      [
        "i",
        "ve"
      ],
      [
        "Ġf",
        "un"
      ],
      [
        "ing",
        "s"
      ],
      [
        "ou",
        "t"
      ],
      [
        "Y",
        "ou"
      ],
      [
        "b",
        "er"
      ],
      [
        "Ġs",
        "ome"
      ],
      [
        "re",
        "s"
      ],
      [
        "Ġt",
        "r"
      ],
      [
        "Ġs",
        "ay"
      ],
      [
        "h",
        "ing"
      ],
      [
        "Ġm",
        "e"
      ],
      [
        "el",
        "t"
      ],
      [
        "Ġwh",
        "o"
      ],
      [
        "Ġf",
        "e"
      ],
      [
        "Ġa",
        "b"
      ],
      [
        "an",
        "t"
      ],
      [
        "Ġl",
        "e"
      ],
      [
        "Ġo",
        "ther"
      ],
      [
        "Ġ",
        "One"
      ],
      [
        "Ġw",
        "e"
      ],
      [
        "s",
        "ide"
      ],
      [
        "Ġli",
        "ke"
      ],
      [
        "Ġp",
        "r"
      ],
      [
        "ir",
        "d"
      ],
      [
        "Ġ",
        "un"
      ],
      [
        "ĠT",
        "om"
      ],
      [
        "Ġg",
        "r"
      ],
      [
        "p",
        "l"
      ],
      [
        "l",
        "ow"
      ],
      [
        "u",
        "e"
      ],
      [
        "c",
        "t"
      ],
      [
        "Ġf",
        "elt"
      ],
      [
        "g",
        "et"
      ],
      [
        "or",
        "t"
      ],
      [
        "Ġar",
        "ound"
      ],
      [
        "Ġlo",
        "ved"
      ],
      [
        "at",
        "er"
      ],
      [
        "Ġm",
        "o"
      ],
      [
        "it",
        "ed"
      ],
      [
        "Ġb",
        "r"
      ],
      [
        "Ġto",
        "y"
      ],
      [
        "ic",
        "h"
      ],
      [
        "Ġas",
        "ked"
      ],
      [
        "ĠTim",
        "my"
      ],
      [
        "Ġsmil",
        "ed"
      ],
      [
        "om",
        "et"
      ],
      [
        "ic",
        "k"
      ],
      [
        "Ġon",
        "e"
      ],
      [
        "Ġm",
        "ade"
      ],
      [
        "u",
        "ch"
      ],
      [
        "i",
        "a"
      ],
      [
        "Ġne",
        "w"
      ],
      [
        "Ġbe",
        "c"
      ],
      [
        "ou",
        "r"
      ],
      [
        "f",
        "ter"
      ],
      [
        "an",
        "g"
      ],
      [
        "Ġw",
        "hen"
      ],
      [
        "ac",
        "h"
      ],
      [
        "Ġloo",
        "ked"
      ],
      [
        "i",
        "al"
      ],
      [
        "Ġin",
        "t"
      ],
      [
        "Ġp",
        "ro"
      ],
      [
        "is",
        "h"
      ],
      [
        "Ġse",
        "e"
      ],
      [
        "a",
        "v"
      ],
      [
        "Ġag",
        "ain"
      ],
      [
        "Ġc",
        "ar"
      ],
      [
        "Ġbo",
        "y"
      ],
      [
        "in",
        "e"
      ],
      [
        "ac",
        "e"
      ],
      [
        "Ġd",
        "e"
      ],
      [
        "u",
        "b"
      ],
      [
        "Ġb",
        "ird"
      ],
      [
        "at",
        "ed"
      ],
      [
        "Ġd",
        "ec"
      ],
      [
        "i",
        "v"
      ],
      [
        "oug",
        "h"
      ],
      [
        "Ġwh",
        "at"
      ],
      [
        "Ġs",
        "omet"
      ],
      [
        "Ġm",
        "ake"
      ],
      [
        "Ġt",
        "w"
      ],
      [
        "get",
        "her"
      ],
      [
        "o",
        "nd"
      ],
      [
        "n",
        "ed"
      ],
      [
        "Ġ",
        "You"
      ],
      [
        "Ġa",
        "way"
      ],
      [
        "Ġf",
        "ound"
      ],
      [
        "ĠB",
        "ut"
      ],
      [
        "L",
        "ily"
      ],
      [
        "it",
        "y"
      ],
      [
        "Ġr",
        "an"
      ],
      [
        "it",
        "e"
      ],
      [
        "Ġthe",
        "n"
      ],
      [
        "Ġto",
        "gether"
      ],
      [
        "i",
        "p"
      ],
      [
        "e",
        "w"
      ],
      [
        "Ġstar",
        "ted"
      ],
      [
        "Ġr",
        "o"
      ],
      [
        "ĠI",
        "n"
      ],
      [
        "Ġ",
        "O"
      ],
      [
        "Ġ",
        "K"
      ],
      [
        ",",
        "\""
      ],
      [
        "a",
        "ve"
      ],
      [
        "oug",
        "ht"
      ],
      [
        "ou",
        "d"
      ],
      [
        "Ġa",
        "d"
      ],
      [
        "ar",
        "y"
      ],
      [
        "â",
        "Ĥ"
      ],
      [
        "as",
        "s"
      ],
      [
        "Ã",
        "¢"
      ],
      [
        "âĤ",
        "¬"
      ],
      [
        "Ġm",
        "ore"
      ],
      [
        "Ġp",
        "ut"
      ],
      [
        "Ġth",
        "an"
      ],
      [
        "ri",
        "ed"
      ],
      [
        "Ġpar",
        "k"
      ],
      [
        "Ġwan",
        "t"
      ],
      [
        "Ġh",
        "ome"
      ],
      [
        "k",
        "ing"
      ],
      [
        "Ġex",
        "c"
      ],
      [
        "Ġsomet",
        "hing"
      ],
      [
        "Ġsay",
        "s"
      ],
      [
        "ar",
        "ed"
      ],
      [
        "Ġit",
        "s"
      ],
      [
        "Ġab",
        "out"
      ],
      [
        "Ġs",
        "ad"
      ],
      [
        "Ġth",
        "is"
      ],
      [
        "pp",
        "ed"
      ],
      [
        "il",
        "e"
      ],
      [
        "a",
        "ug"
      ],
      [
        "Ġg",
        "ood"
      ],
      [
        "t",
        "y"
      ],
      [
        "Ġb",
        "l"
      ],
      [
        "m",
        "ent"
      ],
      [
        "Ġ",
        "en"
      ],
      [
        "Ġo",
        "ver"
      ],
      [
        "i",
        "z"
      ],
      [
        "Ġwh",
        "ich"
      ],
      [
        "ou",
        "n"
      ],
      [
        "Ġp",
        "re"
      ],
      [
        "oo",
        "k"
      ],
      [
        "Ġint",
        "o"
      ],
      [
        "h",
        "at"
      ],
      [
        "ec",
        "t"
      ],
      [
        "id",
        "ed"
      ],
      [
        "ir",
        "st"
      ],
      [
        "Ġd",
        "own"
      ],
      [
        "f",
        "f"
      ],
      [
        "Ġh",
        "ug"
      ],
      [
        "Ġc",
        "o"
      ],
      [
        "Ġs",
        "w"
      ],
      [
        "Ġg",
        "et"
      ],
      [
        "s",
        "o"
      ],
      [
        "a",
        "x"
      ],
      [
        "Ġplay",
        "ing"
      ],
      [
        "ou",
        "se"
      ],
      [
        "Ġo",
        "p"
      ],
      [
        "i",
        "an"
      ],
      [
        "Ġof",
        "f"
      ],
      [
        "Ġ",
        "U"
      ],
      [
        "Ġw",
        "al"
      ],
      [
        "is",
        "e"
      ],
      [
        "n",
        "a"
      ],
      [
        "n",
        "y"
      ],
      [
        "Ġcon",
        "t"
      ],
      [
        "i",
        "re"
      ],
      [
        "Ġc",
        "ame"
      ],
      [
        "o",
        "d"
      ],
      [
        "Ġe",
        "very"
      ],
      [
        "Ġal",
        "so"
      ],
      [
        "Ġc",
        "are"
      ],
      [
        "ag",
        "e"
      ],
      [
        "Ġ",
        "im"
      ],
      [
        "Ġ",
        "â"
      ],
      [
        "Ġe",
        "v"
      ],
      [
        "Ġf",
        "irst"
      ],
      [
        "Ġsp",
        "ec"
      ],
      [
        "re",
        "at"
      ],
      [
        "ĠS",
        "t"
      ],
      [
        "Ġth",
        "ings"
      ],
      [
        "Ġg",
        "ot"
      ],
      [
        "Ġtw",
        "o"
      ],
      [
        "g",
        "e"
      ],
      [
        "Ġu",
        "s"
      ],
      [
        "a",
        "u"
      ],
      [
        "Ġf",
        "ind"
      ],
      [
        "or",
        "d"
      ],
      [
        "ĠA",
        "n"
      ],
      [
        "Ġâ",
        "Ģ"
      ],
      [
        "p",
        "t"
      ],
      [
        "Ġdec",
        "ided"
      ],
      [
        "Ġw",
        "ill"
      ],
      [
        "il",
        "d"
      ],
      [
        "Ġtoo",
        "k"
      ],
      [
        "Ġp",
        "e"
      ],
      [
        "Ġdo",
        "g"
      ],
      [
        "ot",
        "her"
      ],
      [
        "Ġli",
        "ked"
      ],
      [
        "he",
        "re"
      ],
      [
        "Ġm",
        "y"
      ],
      [
        "Ġexc",
        "ited"
      ],
      [
        "Ġ",
        "3"
      ],
      [
        "Ġh",
        "as"
      ],
      [
        "ar",
        "a"
      ],
      [
        "Ġb",
        "et"
      ],
      [
        "Ġf",
        "l"
      ],
      [
        "Ġyou",
        "r"
      ],
      [
        "uc",
        "k"
      ],
      [
        "Ġfe",
        "el"
      ],
      [
        "Ġ",
        "qu"
      ],
      [
        "nd",
        "er"
      ],
      [
        "Ġ",
        "ke"
      ],
      [
        "en",
        "ed"
      ],
      [
        "ot",
        "h"
      ],
      [
        "way",
        "s"
      ],
      [
        "Ġa",
        "c"
      ],
      [
        "Ġsh",
        "ow"
      ],
      [
        "ig",
        "h"
      ],
      [
        "ud",
        "d"
      ],
      [
        "o",
        "g"
      ],
      [
        "o",
        "b"
      ],
      [
        "al",
        "s"
      ],
      [
        "Ġst",
        "r"
      ],
      [
        "res",
        "s"
      ],
      [
        "Ġin",
        "c"
      ],
      [
        "el",
        "y"
      ],
      [
        "Ġan",
        "y"
      ],
      [
        "Ġo",
        "ld"
      ],
      [
        "Ġb",
        "all"
      ],
      [
        "ol",
        "l"
      ],
      [
        "Ġh",
        "ow"
      ],
      [
        "Ġd",
        "ad"
      ],
      [
        "ab",
        "le"
      ],
      [
        "Ġth",
        "ought"
      ],
      [
        "Ġcom",
        "p"
      ],
      [
        "Ġbe",
        "en"
      ],
      [
        "ion",
        "s"
      ],
      [
        "au",
        "se"
      ],
      [
        "Ġp",
        "er"
      ],
      [
        "Ġsc",
        "ared"
      ],
      [
        "g",
        "ed"
      ],
      [
        "n",
        "ing"
      ],
      [
        "m",
        "er"
      ],
      [
        "Ġal",
        "ways"
      ],
      [
        "ĠC",
        "h"
      ],
      [
        "ic",
        "al"
      ],
      [
        "Ġd",
        "is"
      ],
      [
        "Ġa",
        "pp"
      ],
      [
        "Ġt",
        "e"
      ],
      [
        "Ġa",
        "fter"
      ],
      [
        "Ġa",
        "m"
      ],
      [
        "Ġt",
        "ree"
      ],
      [
        "or",
        "y"
      ],
      [
        "Ġtoy",
        "s"
      ],
      [
        "Ġp",
        "o"
      ],
      [
        "Ġr",
        "un"
      ],
      [
        "an",
        "ce"
      ],
      [
        "Ġdid",
        "n"
      ],
      [
        "The",
        "y"
      ],
      [
        "Ġl",
        "ear"
      ],
      [
        "Ġout",
        "side"
      ],
      [
        "o",
        "y"
      ],
      [
        "as",
        "e"
      ],
      [
        "Ġt",
        "ake"
      ],
      [
        "ĠM",
        "om"
      ],
      [
        "Ġy",
        "ear"
      ],
      [
        "or",
        "m"
      ],
      [
        "Ġw",
        "r"
      ],
      [
        "Ġkn",
        "ow"
      ],
      [
        "Ġl",
        "ot"
      ],
      [
        "ar",
        "k"
      ],
      [
        "Ġe",
        "nd"
      ],
      [
        "f",
        "t"
      ],
      [
        "Ġm",
        "uch"
      ],
      [
        "Ġ2",
        "00"
      ],
      [
        "Ġre",
        "m"
      ],
      [
        "Ġp",
        "ic"
      ],
      [
        "at",
        "ch"
      ],
      [
        "Ġc",
        "all"
      ],
      [
        "Ġman",
        "y"
      ],
      [
        "Ġh",
        "o"
      ],
      [
        "Ġmom",
        "my"
      ],
      [
        "Ġb",
        "u"
      ],
      [
        "an",
        "k"
      ],
      [
        "l",
        "l"
      ],
      [
        "ĠT",
        "h"
      ],
      [
        "Ġl",
        "ong"
      ],
      [
        "Ġc",
        "r"
      ],
      [
        "h",
        "n"
      ],
      [
        "Ġspec",
        "ial"
      ],
      [
        "l",
        "es"
      ],
      [
        "ĠJ",
        "o"
      ],
      [
        "Ġ",
        ";"
      ],
      [
        "oc",
        "k"
      ],
      [
        "ĠS",
        "am"
      ],
      [
        "Ġ",
        "V"
      ],
      [
        "Ġha",
        "nd"
      ],
      [
        "Ġplay",
        "ed"
      ],
      [
        "i",
        "ed"
      ],
      [
        "ĠM",
        "ax"
      ],
      [
        "Ġc",
        "ol"
      ],
      [
        "Ġbec",
        "ause"
      ],
      [
        "Ġu",
        "nder"
      ],
      [
        "Ġre",
        "s"
      ],
      [
        "Ġs",
        "k"
      ],
      [
        "b",
        "le"
      ],
      [
        "Ġh",
        "ouse"
      ],
      [
        "f",
        "e"
      ],
      [
        "Ġe",
        "ach"
      ],
      [
        "Ġ",
        "if"
      ],
      [
        "en",
        "ce"
      ],
      [
        "v",
        "ing"
      ],
      [
        "Ġf",
        "in"
      ],
      [
        "l",
        "ed"
      ],
      [
        "Ġw",
        "ater"
      ],
      [
        "Ġre",
        "c"
      ],
      [
        "Ġl",
        "aug"
      ],
      [
        "Ġsm",
        "all"
      ],
      [
        "Ġim",
        "p"
      ],
      [
        "Ġth",
        "r"
      ],
      [
        "Ġkn",
        "ew"
      ],
      [
        "Ġex",
        "pl"
      ],
      [
        "t",
        "il"
      ],
      [
        "el",
        "f"
      ],
      [
        "er",
        "ed"
      ],
      [
        "w",
        "n"
      ],
      [
        "udd",
        "en"
      ],
      [
        "he",
        "s"
      ],
      [
        "Ġg",
        "ave"
      ],
      [
        "i",
        "x"
      ],
      [
        "ĠW",
        "e"
      ],
      [
        "Ġ2",
        "0"
      ],
      [
        "ig",
        "n"
      ],
      [
        "i",
        "ous"
      ],
      [
        "Ġj",
        "ust"
      ],
      [
        "Ġw",
        "a"
      ],
      [
        "f",
        "ore"
      ],
      [
        "is",
        "s"
      ],
      [
        "w",
        "ard"
      ],
      [
        "Ġs",
        "ur"
      ],
      [
        "an",
        "e"
      ],
      [
        "is",
        "hed"
      ],
      [
        "Ġun",
        "til"
      ],
      [
        "an",
        "s"
      ],
      [
        "um",
        "p"
      ],
      [
        "Ġne",
        "ver"
      ],
      [
        "or",
        "ry"
      ],
      [
        "Ġto",
        "ld"
      ],
      [
        "ar",
        "t"
      ],
      [
        "udden",
        "ly"
      ],
      [
        "or",
        "s"
      ],
      [
        "en",
        "s"
      ],
      [
        "oo",
        "l"
      ],
      [
        "Ġs",
        "un"
      ],
      [
        "Ġg",
        "ra"
      ],
      [
        "a",
        "il"
      ],
      [
        "Ġ",
        ":"
      ],
      [
        "t",
        "ing"
      ],
      [
        "f",
        "er"
      ],
      [
        "g",
        "an"
      ],
      [
        "b",
        "ed"
      ],
      [
        "Ġwh",
        "ile"
      ],
      [
        "Ġcare",
        "ful"
      ],
      [
        "Ġ1",
        "8"
      ],
      [
        "B",
        "ut"
      ],
      [
        "Ġb",
        "oth"
      ],
      [
        "ĠâĢ",
        "ĵ"
      ],
      [
        "Ġd",
        "es"
      ],
      [
        "Ġro",
        "om"
      ],
      [
        "Ġs",
        "orry"
      ],
      [
        "an",
        "c"
      ],
      [
        "ac",
        "t"
      ],
      [
        "ol",
        "low"
      ],
      [
        "Ġt",
        "ried"
      ],
      [
        "p",
        "r"
      ],
      [
        "Ġin",
        "side"
      ],
      [
        "Ġne",
        "ed"
      ],
      [
        "p",
        "h"
      ],
      [
        "ĠH",
        "er"
      ],
      [
        "ur",
        "ing"
      ],
      [
        "v",
        "el"
      ],
      [
        "u",
        "p"
      ],
      [
        "i",
        "ver"
      ],
      [
        "Ġbe",
        "fore"
      ],
      [
        "Ġ",
        "4"
      ],
      [
        "Ġat",
        "t"
      ],
      [
        "Ġloo",
        "k"
      ],
      [
        "m",
        "an"
      ],
      [
        "Ġe",
        "at"
      ],
      [
        "Ġb",
        "est"
      ],
      [
        "Ġpr",
        "oud"
      ],
      [
        ".",
        "@"
      ],
      [
        "Ġ@",
        ".@"
      ],
      [
        "a",
        "z"
      ],
      [
        "in",
        "k"
      ],
      [
        "Ġhe",
        "ard"
      ],
      [
        "Ġcould",
        "n"
      ],
      [
        "Ġ",
        "5"
      ],
      [
        "Ġan",
        "im"
      ],
      [
        "Ġf",
        "am"
      ],
      [
        "Ġs",
        "l"
      ],
      [
        "is",
        "ed"
      ],
      [
        "re",
        "n"
      ],
      [
        "Ġbo",
        "x"
      ],
      [
        "l",
        "and"
      ],
      [
        "Ġon",
        "ly"
      ],
      [
        "v",
        "ent"
      ],
      [
        "Ġcall",
        "ed"
      ],
      [
        "a",
        "ir"
      ],
      [
        "Ġev",
        "en"
      ],
      [
        "it",
        "ion"
      ],
      [
        "d",
        "y"
      ],
      [
        "s",
        "s"
      ],
      [
        "Ġpre",
        "t"
      ],
      [
        "ĠA",
        "nd"
      ],
      [
        "op",
        "le"
      ],
      [
        "ĠJ",
        "ack"
      ],
      [
        "on",
        "s"
      ],
      [
        "b",
        "y"
      ],
      [
        "Ġc",
        "le"
      ],
      [
        "ad",
        "y"
      ],
      [
        "Ġs",
        "er"
      ],
      [
        "ĠE",
        "very"
      ],
      [
        "ation",
        "s"
      ],
      [
        "Ġhug",
        "ged"
      ],
      [
        "ĠB",
        "r"
      ],
      [
        "T",
        "om"
      ],
      [
        "Ġbe",
        "ing"
      ],
      [
        "o",
        "se"
      ],
      [
        "ĠS",
        "ara"
      ],
      [
        "Ġw",
        "here"
      ],
      [
        "Ġth",
        "ree"
      ],
      [
        "w",
        "e"
      ],
      [
        "l",
        "ud"
      ],
      [
        "Ġbe",
        "ar"
      ],
      [
        "Ġf",
        "ollow"
      ],
      [
        "t",
        "ure"
      ],
      [
        "ĠAn",
        "na"
      ],
      [
        "ar",
        "m"
      ],
      [
        "at",
        "h"
      ],
      [
        "am",
        "p"
      ],
      [
        "Ġw",
        "ay"
      ],
      [
        "ul",
        "l"
      ],
      [
        "Ġt",
        "ry"
      ],
      [
        "Ġg",
        "ame"
      ],
      [
        "Ġc",
        "at"
      ],
      [
        "c",
        "hed"
      ],
      [
        "Ġt",
        "ur"
      ],
      [
        "Ġr",
        "ed"
      ],
      [
        "Ġst",
        "ill"
      ],
      [
        "Ġbet",
        "ter"
      ],
      [
        "M",
        "om"
      ],
      [
        "Ġl",
        "et"
      ],
      [
        "as",
        "ed"
      ],
      [
        "Ġthr",
        "ough"
      ],
      [
        "ĠS",
        "o"
      ],
      [
        "Ġh",
        "ur"
      ],
      [
        "ak",
        "ing"
      ],
      [
        "Ġpe",
        "ople"
      ],
      [
        "ĠH",
        "is"
      ],
      [
        "s",
        "elf"
      ],
      [
        "em",
        "ber"
      ],
      [
        "Ġlear",
        "ned"
      ],
      [
        "x",
        "t"
      ],
      [
        "Ġpar",
        "t"
      ],
      [
        ",",
        "@"
      ],
      [
        "Ġ@",
        ",@"
      ],
      [
        "Ġn",
        "ice"
      ],
      [
        "Ġl",
        "ist"
      ],
      [
        "'",
        "m"
      ],
      [
        "Ġs",
        "n"
      ],
      [
        "Ġh",
        "igh"
      ],
      [
        "Ġf",
        "r"
      ],
      [
        "Ġs",
        "ong"
      ],
      [
        "Ġf",
        "low"
      ],
      [
        "g",
        "ry"
      ],
      [
        "Ġ20",
        "1"
      ],
      [
        "Ġk",
        "ind"
      ],
      [
        "a",
        "ut"
      ],
      [
        "Ġcl",
        "os"
      ],
      [
        "Ġc",
        "he"
      ],
      [
        "u",
        "pp"
      ],
      [
        "Ġe",
        "ar"
      ],
      [
        "Ġd",
        "on"
      ],
      [
        "b",
        "e"
      ],
      [
        "Ġbec",
        "ame"
      ],
      [
        "oun",
        "t"
      ],
      [
        "Ġinc",
        "lud"
      ],
      [
        "Ġd",
        "if"
      ],
      [
        "Ġs",
        "ec"
      ],
      [
        "Ġre",
        "l"
      ],
      [
        "T",
        "h"
      ],
      [
        "Ġfam",
        "ily"
      ],
      [
        "iz",
        "ed"
      ],
      [
        "Ġsk",
        "y"
      ],
      [
        "Ġwor",
        "k"
      ],
      [
        "Ġf",
        "le"
      ],
      [
        "Ġlo",
        "ve"
      ],
      [
        "ĠS",
        "p"
      ],
      [
        "Ġin",
        "ter"
      ],
      [
        "c",
        "ess"
      ],
      [
        "Ġn",
        "ow"
      ],
      [
        "Ġus",
        "ed"
      ],
      [
        "in",
        "y"
      ],
      [
        "Ġmo",
        "st"
      ],
      [
        "Y",
        "es"
      ],
      [
        "n",
        "g"
      ],
      [
        "Ġd",
        "ra"
      ],
      [
        "Ġc",
        "ome"
      ],
      [
        "Ġbe",
        "aut"
      ],
      [
        "Ġne",
        "ar"
      ],
      [
        "or",
        "n"
      ],
      [
        "Ġj",
        "ump"
      ],
      [
        "ent",
        "s"
      ],
      [
        "Ġsh",
        "ould"
      ],
      [
        "Ġg",
        "l"
      ],
      [
        "ĠW",
        "hen"
      ],
      [
        "Ġh",
        "ard"
      ],
      [
        "at",
        "es"
      ],
      [
        "ard",
        "en"
      ],
      [
        "d",
        "ed"
      ],
      [
        "Ġf",
        "ore"
      ],
      [
        "Ġli",
        "ved"
      ],
      [
        "H",
        "e"
      ],
      [
        "p",
        "er"
      ],
      [
        "Ġthan",
        "ked"
      ],
      [
        "ĠA",
        "s"
      ],
      [
        "ĠF",
        "rom"
      ],
      [
        "ĠJo",
        "hn"
      ],
      [
        "ĠM",
        "ia"
      ],
      [
        "Ġs",
        "ing"
      ],
      [
        "Ġw",
        "ind"
      ],
      [
        "if",
        "ul"
      ],
      [
        "ir",
        "ed"
      ],
      [
        "e",
        "ver"
      ],
      [
        "Ġg",
        "arden"
      ],
      [
        "Ġlaug",
        "hed"
      ],
      [
        "Ġanim",
        "als"
      ],
      [
        "v",
        "es"
      ],
      [
        "a",
        "w"
      ],
      [
        "r",
        "ic"
      ],
      [
        "am",
        "es"
      ],
      [
        "re",
        "am"
      ],
      [
        "Ġu",
        "se"
      ],
      [
        "ang",
        "e"
      ],
      [
        "I",
        "t"
      ],
      [
        "Ġbeaut",
        "iful"
      ],
      [
        "Ġb",
        "ra"
      ],
      [
        "Ġl",
        "oud"
      ],
      [
        "at",
        "her"
      ],
      [
        "ĠU",
        "n"
      ],
      [
        "Ġyear",
        "s"
      ],
      [
        "Ġre",
        "al"
      ],
      [
        "Ġs",
        "et"
      ],
      [
        "Ġper",
        "f"
      ],
      [
        "Ġ",
        "6"
      ],
      [
        "Ġst",
        "ay"
      ],
      [
        "ou",
        "th"
      ],
      [
        "Ġd",
        "oll"
      ],
      [
        "ĠA",
        "l"
      ],
      [
        "Ġm",
        "us"
      ],
      [
        "m",
        "a"
      ],
      [
        "Ġm",
        "on"
      ],
      [
        "in",
        "s"
      ],
      [
        "Ġlot",
        "s"
      ],
      [
        "Ġa",
        "ct"
      ],
      [
        "Ġcom",
        "m"
      ],
      [
        "Ġgr",
        "ound"
      ],
      [
        "Ġno",
        "d"
      ],
      [
        "Ġhe",
        "ad"
      ],
      [
        "Ġne",
        "xt"
      ],
      [
        "d",
        "uc"
      ],
      [
        "Ġo",
        "wn"
      ],
      [
        "Å",
        "ĵ"
      ],
      [
        "r",
        "ed"
      ],
      [
        "Ġb",
        "ad"
      ],
      [
        "il",
        "m"
      ],
      [
        "Ġf",
        "ly"
      ],
      [
        "Ġb",
        "el"
      ],
      [
        "Ġc",
        "ent"
      ],
      [
        "re",
        "w"
      ],
      [
        "i",
        "el"
      ],
      [
        "Ġ",
        "ide"
      ],
      [
        "Ġre",
        "p"
      ],
      [
        "o",
        "in"
      ],
      [
        "Ġso",
        "on"
      ],
      [
        "ak",
        "es"
      ],
      [
        "Ġg",
        "reat"
      ],
      [
        "Ġsa",
        "fe"
      ],
      [
        "uc",
        "y"
      ],
      [
        "ĠTh",
        "is"
      ],
      [
        "Ġbe",
        "gan"
      ],
      [
        "Ġ",
        "7"
      ],
      [
        "ĠThe",
        "n"
      ],
      [
        "W",
        "hen"
      ],
      [
        "Ġre",
        "pl"
      ],
      [
        "T",
        "im"
      ],
      [
        "Ġs",
        "uch"
      ],
      [
        "Ġop",
        "ened"
      ],
      [
        "op",
        "e"
      ],
      [
        "Ġb",
        "ro"
      ],
      [
        "Ġgo",
        "ing"
      ],
      [
        "Ġcle",
        "an"
      ],
      [
        "Ġl",
        "ater"
      ],
      [
        "Ġdif",
        "fer"
      ],
      [
        "b",
        "it"
      ],
      [
        "ul",
        "ar"
      ],
      [
        "Ġfle",
        "w"
      ],
      [
        "ain",
        "ed"
      ],
      [
        "ul",
        "t"
      ],
      [
        "Ġsh",
        "are"
      ],
      [
        "as",
        "on"
      ],
      [
        "Ġt",
        "re"
      ],
      [
        "Ġe",
        "y"
      ],
      [
        "k",
        "ay"
      ],
      [
        "u",
        "ed"
      ],
      [
        "Ġwal",
        "ked"
      ],
      [
        "Ġ",
        "Ã¢"
      ],
      [
        "Ġpl",
        "ace"
      ],
      [
        "Ġke",
        "ep"
      ],
      [
        "Ġf",
        "o"
      ],
      [
        "m",
        "e"
      ],
      [
        "Ġn",
        "um"
      ],
      [
        "Ġre",
        "t"
      ],
      [
        "im",
        "es"
      ],
      [
        "Ġd",
        "el"
      ],
      [
        "Ġbra",
        "ve"
      ],
      [
        "Ġsur",
        "pr"
      ],
      [
        "Ġr",
        "ight"
      ],
      [
        "Ġstr",
        "ong"
      ],
      [
        "il",
        "ly"
      ],
      [
        "Ġe",
        "le"
      ],
      [
        "Ġke",
        "pt"
      ],
      [
        "t",
        "ion"
      ],
      [
        "Ġhur",
        "t"
      ],
      [
        "t",
        "on"
      ],
      [
        "e",
        "y"
      ],
      [
        "Ġ",
        "9"
      ],
      [
        "Ġcon",
        "s"
      ],
      [
        "Ġch",
        "ild"
      ],
      [
        "d",
        "er"
      ],
      [
        "u",
        "ff"
      ],
      [
        "Ġd",
        "uring"
      ],
      [
        "Ġan",
        "gry"
      ],
      [
        "Ġcont",
        "in"
      ],
      [
        "Ġ",
        "8"
      ],
      [
        "ub",
        "l"
      ],
      [
        "ĠM",
        "ar"
      ],
      [
        "Ġ",
        "Y"
      ],
      [
        "Ġst",
        "o"
      ],
      [
        "i",
        "b"
      ],
      [
        "L",
        "et"
      ],
      [
        "we",
        "en"
      ],
      [
        "Ġf",
        "ast"
      ],
      [
        "Ġac",
        "c"
      ],
      [
        "Ġm",
        "et"
      ],
      [
        "Ġimp",
        "ort"
      ],
      [
        "Ġf",
        "ilm"
      ],
      [
        "I",
        "n"
      ],
      [
        "ou",
        "p"
      ],
      [
        "Ġide",
        "a"
      ],
      [
        "Ġs",
        "ound"
      ],
      [
        "le",
        "ase"
      ],
      [
        "th",
        "ing"
      ],
      [
        "Ġad",
        "vent"
      ],
      [
        "Ġcl",
        "im"
      ],
      [
        "ter",
        "n"
      ],
      [
        "ro",
        "ss"
      ],
      [
        "Ġpret",
        "ty"
      ],
      [
        "Ġst",
        "ory"
      ],
      [
        "ac",
        "hed"
      ],
      [
        "um",
        "my"
      ],
      [
        "Ġno",
        "ise"
      ],
      [
        "ĠC",
        "an"
      ],
      [
        "Ġsh",
        "iny"
      ],
      [
        "v",
        "en"
      ],
      [
        "B",
        "en"
      ],
      [
        "Ġm",
        "ag"
      ],
      [
        "Ġch",
        "ar"
      ],
      [
        "Ġdiffer",
        "ent"
      ],
      [
        "or",
        "th"
      ],
      [
        "o",
        "on"
      ],
      [
        "st",
        "r"
      ],
      [
        "Ġc",
        "ry"
      ],
      [
        "iel",
        "d"
      ],
      [
        "Ġl",
        "ar"
      ],
      [
        "ter",
        "s"
      ],
      [
        "Ġbet",
        "ween"
      ],
      [
        "i",
        "er"
      ],
      [
        "Ġrec",
        "ord"
      ],
      [
        "Ġdo",
        "or"
      ],
      [
        "as",
        "h"
      ],
      [
        "is",
        "ion"
      ],
      [
        "e",
        "e"
      ],
      [
        "h",
        "ip"
      ],
      [
        "Ġexpl",
        "ore"
      ],
      [
        "Ġwor",
        "ld"
      ],
      [
        "c",
        "c"
      ],
      [
        "Ġre",
        "st"
      ],
      [
        "Ġfeel",
        "ing"
      ],
      [
        "Ġe",
        "ver"
      ],
      [
        "Ġn",
        "ame"
      ],
      [
        "u",
        "ri"
      ],
      [
        "at",
        "t"
      ],
      [
        "ĠA",
        "r"
      ],
      [
        "ie",
        "w"
      ],
      [
        "Ġm",
        "ar"
      ],
      [
        "u",
        "it"
      ],
      [
        "Ġb",
        "ook"
      ],
      [
        "Ġbu",
        "ild"
      ],
      [
        "ation",
        "al"
      ],
      [
        "Ġp",
        "rom"
      ],
      [
        "Ġb",
        "ed"
      ],
      [
        "Ġimport",
        "ant"
      ],
      [
        "Ġg",
        "ive"
      ],
      [
        "Ġf",
        "ood"
      ],
      [
        "Ġpic",
        "ked"
      ],
      [
        "Ġp",
        "os"
      ],
      [
        "ĠL",
        "ucy"
      ],
      [
        "b",
        "r"
      ],
      [
        "en",
        "er"
      ],
      [
        "Ġre",
        "g"
      ],
      [
        "i",
        "ent"
      ],
      [
        "âĤ¬",
        "â"
      ],
      [
        "Ġf",
        "ar"
      ],
      [
        "Ġt",
        "al"
      ],
      [
        "Ġb",
        "re"
      ],
      [
        "Ġe",
        "m"
      ],
      [
        "Ġpic",
        "ture"
      ],
      [
        "oc",
        "ks"
      ],
      [
        "Ġnod",
        "ded"
      ],
      [
        "W",
        "hat"
      ],
      [
        "Ġa",
        "ir"
      ],
      [
        "n",
        "er"
      ],
      [
        "Ġpl",
        "an"
      ],
      [
        "Ġd",
        "r"
      ],
      [
        "o",
        "ice"
      ],
      [
        "ĠA",
        "fter"
      ],
      [
        "Ġan",
        "other"
      ],
      [
        "Ġqu",
        "ick"
      ],
      [
        "j",
        "oy"
      ],
      [
        "Ġlo",
        "c"
      ],
      [
        "ic",
        "ed"
      ],
      [
        "i",
        "et"
      ],
      [
        "Ġop",
        "en"
      ],
      [
        "id",
        "ent"
      ],
      [
        "ĠB",
        "ob"
      ],
      [
        "on",
        "t"
      ],
      [
        "u",
        "al"
      ],
      [
        "Ġp",
        "res"
      ],
      [
        "en",
        "c"
      ],
      [
        "Ġpo",
        "in"
      ],
      [
        "Ġbl",
        "ue"
      ],
      [
        "Ġ",
        "ind"
      ],
      [
        "ĠM",
        "ay"
      ],
      [
        "N",
        "o"
      ],
      [
        "Ġ",
        "ent"
      ],
      [
        "Ġ",
        "00"
      ],
      [
        "u",
        "ally"
      ],
      [
        "Ġhand",
        "s"
      ],
      [
        "o",
        "ve"
      ],
      [
        "Ġm",
        "or"
      ],
      [
        "it",
        "ing"
      ],
      [
        "re",
        "en"
      ],
      [
        "T",
        "hat"
      ],
      [
        "Ġfore",
        "st"
      ],
      [
        "al",
        "e"
      ],
      [
        "ĠN",
        "ew"
      ],
      [
        "Ġw",
        "ell"
      ],
      [
        "ur",
        "y"
      ],
      [
        "ure",
        "s"
      ],
      [
        "at",
        "ing"
      ],
      [
        "Ġ19",
        "9"
      ],
      [
        "Ġsto",
        "pped"
      ],
      [
        "Ġr",
        "ain"
      ],
      [
        "Ġdo",
        "es"
      ],
      [
        "Ġt",
        "ri"
      ],
      [
        "Ġfor",
        "m"
      ],
      [
        "Ġw",
        "at"
      ],
      [
        "Ġm",
        "in"
      ],
      [
        "Ġf",
        "ire"
      ],
      [
        "Ġs",
        "upp"
      ],
      [
        "Ġwal",
        "king"
      ],
      [
        "Ġr",
        "ock"
      ],
      [
        "ol",
        "og"
      ],
      [
        "ward",
        "s"
      ],
      [
        "Ġp",
        "ol"
      ],
      [
        "Ġapp",
        "ear"
      ],
      [
        "Ġen",
        "joy"
      ],
      [
        "Ġf",
        "our"
      ],
      [
        "Ġloo",
        "king"
      ],
      [
        "Ġey",
        "es"
      ],
      [
        "Ġw",
        "atch"
      ],
      [
        "re",
        "t"
      ],
      [
        "Ġs",
        "qu"
      ],
      [
        "Ġs",
        "ub"
      ],
      [
        "Ġp",
        "ain"
      ],
      [
        "Ġbe",
        "h"
      ],
      [
        "st",
        "er"
      ],
      [
        "Ħ",
        "¢"
      ],
      [
        "âĤ¬â",
        "Ħ¢"
      ],
      [
        "ow",
        "er"
      ],
      [
        "Ġse",
        "ason"
      ],
      [
        "Ġex",
        "p"
      ],
      [
        "Ġmus",
        "ic"
      ],
      [
        "Ġha",
        "ving"
      ],
      [
        "Ġbo",
        "at"
      ],
      [
        "Ġshow",
        "ed"
      ],
      [
        "Ġn",
        "ight"
      ],
      [
        "Ġle",
        "ft"
      ],
      [
        "Ġf",
        "av"
      ],
      [
        "mer",
        "ic"
      ],
      [
        "Ġrem",
        "ember"
      ],
      [
        "Ġb",
        "us"
      ],
      [
        "Ġlist",
        "en"
      ],
      [
        "Ġsec",
        "ond"
      ],
      [
        "Ġto",
        "p"
      ],
      [
        "o",
        "st"
      ],
      [
        "Ġsmil",
        "e"
      ],
      [
        "Ġf",
        "ish"
      ],
      [
        "Ġ",
        "/"
      ],
      [
        "ĠA",
        "meric"
      ],
      [
        "c",
        "ri"
      ],
      [
        "Th",
        "ank"
      ],
      [
        "ĠC",
        "om"
      ],
      [
        "r",
        "al"
      ],
      [
        "Ġpro",
        "duc"
      ],
      [
        "in",
        "ce"
      ],
      [
        "Ġw",
        "ond"
      ],
      [
        "h",
        "y"
      ],
      [
        "Ġtr",
        "uck"
      ],
      [
        "Ġs",
        "y"
      ],
      [
        "le",
        "t"
      ],
      [
        "Ġo",
        "ur"
      ],
      [
        "Ġgra",
        "b"
      ],
      [
        "ill",
        "ed"
      ],
      [
        "are",
        "n"
      ],
      [
        "Ġre",
        "ached"
      ],
      [
        "Ġquick",
        "ly"
      ],
      [
        "Ġl",
        "ess"
      ],
      [
        "ĠA",
        "t"
      ],
      [
        "Ġsl",
        "ide"
      ],
      [
        "Ġy",
        "ell"
      ],
      [
        "Ġv",
        "oice"
      ],
      [
        "ĠS",
        "uddenly"
      ],
      [
        "i",
        "ke"
      ],
      [
        "Ġ",
        "z"
      ],
      [
        "Ġam",
        "az"
      ],
      [
        "Ġme",
        "an"
      ],
      [
        "Ġf",
        "ace"
      ],
      [
        "ot",
        "e"
      ],
      [
        "Ġdis",
        "c"
      ],
      [
        "Ġl",
        "and"
      ],
      [
        "Ġin",
        "v"
      ],
      [
        "S",
        "he"
      ],
      [
        "Ġsa",
        "me"
      ],
      [
        "Ġnot",
        "iced"
      ],
      [
        "ĠL",
        "e"
      ],
      [
        "et",
        "er"
      ],
      [
        "Ġt",
        "ell"
      ],
      [
        "i",
        "o"
      ],
      [
        "Ġv",
        "is"
      ],
      [
        "Ġas",
        "s"
      ],
      [
        "Ġflow",
        "ers"
      ],
      [
        "ver",
        "s"
      ],
      [
        "n",
        "s"
      ],
      [
        "Ġd",
        "ist"
      ],
      [
        "Ġdra",
        "w"
      ],
      [
        "Ġ00",
        "0"
      ],
      [
        "Ġf",
        "ell"
      ],
      [
        "Ġsw",
        "e"
      ],
      [
        "it",
        "c"
      ],
      [
        "Ġp",
        "op"
      ],
      [
        "Ġd",
        "ep"
      ],
      [
        "Ġnum",
        "ber"
      ],
      [
        "Ġrepl",
        "ied"
      ],
      [
        "ĠD",
        "ad"
      ],
      [
        "S",
        "uddenly"
      ],
      [
        "d",
        "ay"
      ],
      [
        "A",
        "fter"
      ],
      [
        "Ġmo",
        "ve"
      ],
      [
        "if",
        "ic"
      ],
      [
        "Ġt",
        "ra"
      ],
      [
        "ĠS",
        "ue"
      ],
      [
        "Ġse",
        "en"
      ],
      [
        "Ġst",
        "ore"
      ],
      [
        "Ġal",
        "ong"
      ],
      [
        "Ġp",
        "ass"
      ],
      [
        "Ġm",
        "aking"
      ],
      [
        "A",
        "n"
      ],
      [
        "g",
        "r"
      ],
      [
        "ab",
        "bit"
      ],
      [
        "Ġf",
        "ur"
      ],
      [
        "ut",
        "e"
      ],
      [
        "in",
        "ed"
      ],
      [
        "Ġe",
        "p"
      ],
      [
        "Ġd",
        "ress"
      ],
      [
        "ic",
        "s"
      ],
      [
        "Ġ",
        "On"
      ],
      [
        "Ġbr",
        "other"
      ],
      [
        "uri",
        "ous"
      ],
      [
        "Ġb",
        "it"
      ],
      [
        "Ġd",
        "ro"
      ],
      [
        "Ġm",
        "ay"
      ],
      [
        "Ġhim",
        "self"
      ],
      [
        "Ġevery",
        "one"
      ],
      [
        "Ġwat",
        "ched"
      ],
      [
        "Ġo",
        "b"
      ],
      [
        "m",
        "s"
      ],
      [
        "Ġr",
        "abbit"
      ],
      [
        "b",
        "um"
      ],
      [
        "Ġw",
        "in"
      ],
      [
        "ĠR",
        "e"
      ],
      [
        "Ġl",
        "ight"
      ],
      [
        "Ġhe",
        "ld"
      ],
      [
        "Ġo",
        "kay"
      ],
      [
        "ch",
        "ool"
      ],
      [
        "i",
        "ble"
      ],
      [
        "by",
        "e"
      ],
      [
        "Ġp",
        "ubl"
      ],
      [
        "Ġs",
        "uc"
      ],
      [
        "Ġst",
        "e"
      ],
      [
        "Ġres",
        "p"
      ],
      [
        "m",
        "ore"
      ],
      [
        "ol",
        "ly"
      ],
      [
        "Ġwal",
        "k"
      ],
      [
        "Ġclos",
        "er"
      ],
      [
        "Ġlo",
        "st"
      ],
      [
        "ug",
        "g"
      ],
      [
        "ĠD",
        "e"
      ],
      [
        "Ġhelp",
        "ed"
      ],
      [
        "an",
        "y"
      ],
      [
        "ig",
        "in"
      ],
      [
        "et",
        "s"
      ],
      [
        "ap",
        "er"
      ],
      [
        "Ġw",
        "arm"
      ],
      [
        "Ġc",
        "ap"
      ],
      [
        "Ġre",
        "ad"
      ],
      [
        "Ġ1",
        "0"
      ],
      [
        "us",
        "ed"
      ],
      [
        "W",
        "e"
      ],
      [
        "Ġd",
        "ri"
      ],
      [
        "Ġg",
        "iv"
      ],
      [
        "id",
        "s"
      ],
      [
        "Ġhe",
        "ar"
      ],
      [
        "Ġagain",
        "st"
      ],
      [
        "Ġte",
        "am"
      ],
      [
        "Ġm",
        "il"
      ],
      [
        "Ġcontin",
        "ued"
      ],
      [
        "Ġ",
        "0"
      ],
      [
        "Ġs",
        "ure"
      ],
      [
        "Ġret",
        "ur"
      ],
      [
        "ĠA",
        "ll"
      ],
      [
        "Ġbird",
        "s"
      ],
      [
        "le",
        "ep"
      ],
      [
        "or",
        "ed"
      ],
      [
        "Ġin",
        "f"
      ],
      [
        "a",
        "pp"
      ],
      [
        "k",
        "es"
      ],
      [
        "Ġst",
        "ud"
      ],
      [
        "Ġf",
        "ull"
      ],
      [
        "Ġle",
        "ad"
      ],
      [
        "L",
        "ook"
      ],
      [
        "Ġfl",
        "o"
      ],
      [
        "Ġgra",
        "nd"
      ],
      [
        "er",
        "t"
      ],
      [
        "S",
        "o"
      ],
      [
        "Ġfor",
        "g"
      ],
      [
        "Ġal",
        "bum"
      ],
      [
        "Ġep",
        "is"
      ],
      [
        "H",
        "er"
      ],
      [
        "s",
        "h"
      ],
      [
        "i",
        "am"
      ],
      [
        "or",
        "k"
      ],
      [
        "Ġhe",
        "re"
      ],
      [
        "in",
        "es"
      ],
      [
        "Ġperf",
        "orm"
      ],
      [
        "ot",
        "t"
      ],
      [
        "Ġgood",
        "bye"
      ],
      [
        "Ġepis",
        "od"
      ],
      [
        "Ġb",
        "ar"
      ],
      [
        "g",
        "er"
      ],
      [
        "it",
        "ies"
      ],
      [
        "Ġc",
        "urious"
      ],
      [
        "Ġar",
        "ri"
      ],
      [
        "aug",
        "ht"
      ],
      [
        "Ġwa",
        "it"
      ],
      [
        "Ġc",
        "ook"
      ],
      [
        "il",
        "a"
      ],
      [
        "Ġst",
        "op"
      ],
      [
        "m",
        "ber"
      ],
      [
        "ĠH",
        "ow"
      ],
      [
        "Ġp",
        "ers"
      ],
      [
        "ĠJ",
        "ane"
      ],
      [
        "re",
        "ed"
      ],
      [
        "le",
        "ased"
      ],
      [
        "Ġw",
        "on"
      ],
      [
        "ĠThe",
        "re"
      ],
      [
        "Ġbr",
        "ight"
      ],
      [
        "Ġany",
        "more"
      ],
      [
        "Ġkn",
        "own"
      ],
      [
        "Ġho",
        "ld"
      ],
      [
        "Ġe",
        "l"
      ],
      [
        "Ġfe",
        "w"
      ],
      [
        "av",
        "es"
      ],
      [
        "p",
        "s"
      ],
      [
        "Ġse",
        "ver"
      ],
      [
        "Ġd",
        "ire"
      ],
      [
        "Ġm",
        "ess"
      ],
      [
        "Ġser",
        "ies"
      ],
      [
        "o",
        "ver"
      ],
      [
        "is",
        "y"
      ],
      [
        "l",
        "ing"
      ],
      [
        "Ġh",
        "un"
      ],
      [
        "Ġchild",
        "ren"
      ],
      [
        "Ġfav",
        "or"
      ],
      [
        "A",
        "s"
      ],
      [
        "Ġw",
        "ar"
      ],
      [
        "Ġre",
        "ce"
      ],
      [
        "Ġc",
        "ake"
      ],
      [
        "Ġbeh",
        "ind"
      ],
      [
        "Ġs",
        "ign"
      ],
      [
        "Ġthe",
        "se"
      ],
      [
        "Ġse",
        "es"
      ],
      [
        "Ġd",
        "one"
      ],
      [
        "ĠE",
        "ng"
      ],
      [
        "Ġchar",
        "ac"
      ],
      [
        "Ġor",
        "igin"
      ],
      [
        "Ġbel",
        "ie"
      ],
      [
        "C",
        "an"
      ],
      [
        "r",
        "ow"
      ],
      [
        "Ġre",
        "ally"
      ],
      [
        "Ġex",
        "t"
      ],
      [
        "Ġsa",
        "nd"
      ],
      [
        "S",
        "ara"
      ],
      [
        "Ġsh",
        "o"
      ],
      [
        "Ġgr",
        "ass"
      ],
      [
        "Ġunder",
        "st"
      ],
      [
        "ĠS",
        "h"
      ],
      [
        "Ġbut",
        "ter"
      ],
      [
        "Ġj",
        "oin"
      ],
      [
        "itc",
        "hen"
      ],
      [
        "Ġhapp",
        "ened"
      ],
      [
        "An",
        "na"
      ],
      [
        "Ġsh",
        "ou"
      ],
      [
        "Ġg",
        "u"
      ],
      [
        "Ġk",
        "itchen"
      ],
      [
        "Ġp",
        "aren"
      ],
      [
        "ĠSp",
        "ot"
      ],
      [
        "Ġt",
        "er"
      ],
      [
        "ĠMom",
        "my"
      ],
      [
        "Ġc",
        "ast"
      ],
      [
        "ain",
        "s"
      ],
      [
        "ĠF",
        "l"
      ],
      [
        "ro",
        "g"
      ],
      [
        "ĠT",
        "hat"
      ],
      [
        "Ġpr",
        "in"
      ],
      [
        "Ġfollow",
        "ed"
      ],
      [
        "Ġ1",
        "2"
      ],
      [
        "Ġcont",
        "r"
      ],
      [
        "Ġwor",
        "ked"
      ],
      [
        "Ġ1",
        "6"
      ],
      [
        "ment",
        "s"
      ],
      [
        "Ġinclud",
        "ing"
      ],
      [
        "u",
        "ary"
      ],
      [
        "ĠW",
        "h"
      ],
      [
        "Ġso",
        "ft"
      ],
      [
        "at",
        "ter"
      ],
      [
        "as",
        "ter"
      ],
      [
        "Ġswe",
        "et"
      ],
      [
        "Ġtr",
        "ans"
      ],
      [
        "J",
        "o"
      ],
      [
        "one",
        "y"
      ],
      [
        "Ġst",
        "ick"
      ],
      [
        "ct",
        "ion"
      ],
      [
        "w",
        "here"
      ],
      [
        "is",
        "ter"
      ],
      [
        "Ġ19",
        "8"
      ],
      [
        "Ġlear",
        "n"
      ],
      [
        "Ġg",
        "ener"
      ],
      [
        "Ġsh",
        "ip"
      ],
      [
        "a",
        "j"
      ],
      [
        "Ġm",
        "ill"
      ],
      [
        "ra",
        "nd"
      ],
      [
        "Ġjump",
        "ed"
      ],
      [
        "av",
        "y"
      ],
      [
        "o",
        "ke"
      ],
      [
        "ic",
        "t"
      ],
      [
        "vel",
        "op"
      ],
      [
        "ac",
        "es"
      ],
      [
        "Ġw",
        "ood"
      ],
      [
        "Ġcon",
        "f"
      ],
      [
        "Ġp",
        "ick"
      ],
      [
        "Ġrun",
        "ning"
      ],
      [
        "ac",
        "ed"
      ],
      [
        "it",
        "s"
      ],
      [
        "Ġear",
        "ly"
      ],
      [
        "Ġto",
        "uch"
      ],
      [
        "Ġadvent",
        "ure"
      ],
      [
        "Ġin",
        "st"
      ],
      [
        "Ġs",
        "ide"
      ],
      [
        "i",
        "ally"
      ],
      [
        "ĠE",
        "m"
      ],
      [
        "Ġp",
        "ur"
      ],
      [
        "Ġ1",
        "7"
      ],
      [
        "Ġgrab",
        "bed"
      ],
      [
        "th",
        "ough"
      ],
      [
        "Ġ",
        "Z"
      ],
      [
        "Ġle",
        "g"
      ],
      [
        "s",
        "on"
      ],
      [
        "ĠL",
        "et"
      ],
      [
        "ĠD",
        "o"
      ],
      [
        "un",
        "ny"
      ],
      [
        "b",
        "o"
      ],
      [
        "Ġwh",
        "ite"
      ],
      [
        "Ġs",
        "low"
      ],
      [
        "Ġcom",
        "ing"
      ],
      [
        "Ġgl",
        "ad"
      ],
      [
        "i",
        "ved"
      ],
      [
        "Ġs",
        "chool"
      ],
      [
        "om",
        "an"
      ],
      [
        "Ġc",
        "atch"
      ],
      [
        "Ġp",
        "us"
      ],
      [
        "Ġab",
        "le"
      ],
      [
        "ĠBr",
        "it"
      ],
      [
        "ĠUn",
        "ited"
      ],
      [
        "Ġm",
        "ain"
      ],
      [
        "am",
        "a"
      ],
      [
        "Ġha",
        "ir"
      ],
      [
        "Ġreal",
        "ized"
      ],
      [
        "un",
        "e"
      ],
      [
        "Ġcl",
        "ose"
      ],
      [
        "Ġre",
        "ady"
      ],
      [
        "Ġfin",
        "ished"
      ],
      [
        "ang",
        "er"
      ],
      [
        "Ġfavor",
        "ite"
      ],
      [
        "Ġth",
        "ing"
      ],
      [
        "end",
        "ed"
      ],
      [
        "ur",
        "ed"
      ],
      [
        "le",
        "y"
      ],
      [
        "Ġh",
        "op"
      ],
      [
        "Ġp",
        "aper"
      ],
      [
        "'",
        "re"
      ],
      [
        "em",
        "ent"
      ],
      [
        "b",
        "all"
      ],
      [
        "Ġ1",
        "5"
      ],
      [
        "at",
        "ive"
      ],
      [
        "e",
        "k"
      ],
      [
        "Ġto",
        "w"
      ],
      [
        "o",
        "ber"
      ],
      [
        "Ġre",
        "f"
      ],
      [
        "Ġlar",
        "ge"
      ],
      [
        "Ġb",
        "ow"
      ],
      [
        "Ġd",
        "in"
      ],
      [
        "Ġh",
        "at"
      ],
      [
        "Ġshou",
        "ted"
      ],
      [
        "ct",
        "or"
      ],
      [
        "Ġsuc",
        "cess"
      ],
      [
        "Ġdes",
        "cri"
      ],
      [
        "c",
        "ed"
      ],
      [
        "ot",
        "s"
      ],
      [
        "Ġcent",
        "ury"
      ],
      [
        "Ġf",
        "ix"
      ],
      [
        "Ġli",
        "fe"
      ],
      [
        "Ġc",
        "re"
      ],
      [
        "Ġs",
        "at"
      ],
      [
        "Ġar",
        "t"
      ],
      [
        "Ġyell",
        "ow"
      ],
      [
        "Ġ",
        "est"
      ],
      [
        "Ġd",
        "ark"
      ],
      [
        "oo",
        "ks"
      ],
      [
        "z",
        "y"
      ],
      [
        "Ġm",
        "other"
      ],
      [
        "Ġl",
        "ate"
      ],
      [
        "Ġat",
        "e"
      ],
      [
        "Ġother",
        "s"
      ],
      [
        "Ġsever",
        "al"
      ],
      [
        "ec",
        "ted"
      ],
      [
        "Ġg",
        "reen"
      ],
      [
        "ĠS",
        "c"
      ],
      [
        "Ġbl",
        "ocks"
      ],
      [
        "Ġl",
        "ady"
      ],
      [
        "Ġparen",
        "ts"
      ],
      [
        "ĠJ",
        "en"
      ],
      [
        "as",
        "k"
      ],
      [
        "ĠâĢ",
        "Ķ"
      ],
      [
        "ĠEvery",
        "one"
      ],
      [
        "er",
        "v"
      ],
      [
        "Ġm",
        "iss"
      ],
      [
        "Ġy",
        "ummy"
      ],
      [
        "Ġg",
        "ames"
      ],
      [
        "Ġcon",
        "c"
      ],
      [
        "or",
        "ies"
      ],
      [
        "Ġfun",
        "ny"
      ],
      [
        "Ġwor",
        "d"
      ],
      [
        "Ġwond",
        "er"
      ],
      [
        "Ġtre",
        "es"
      ],
      [
        "Ġepisod",
        "e"
      ],
      [
        "Ġt",
        "ired"
      ],
      [
        "Ġ1",
        "1"
      ],
      [
        "Ġc",
        "ool"
      ],
      [
        "Ġwh",
        "y"
      ],
      [
        "Ġp",
        "h"
      ],
      [
        "ri",
        "es"
      ],
      [
        "Ġad",
        "d"
      ],
      [
        "k",
        "en"
      ],
      [
        "Ġc",
        "ount"
      ],
      [
        "W",
        "ow"
      ],
      [
        "Ġth",
        "in"
      ],
      [
        "Ġde",
        "velop"
      ],
      [
        "f",
        "ly"
      ],
      [
        "Ġf",
        "ield"
      ],
      [
        "Ġneed",
        "ed"
      ],
      [
        "Ġwor",
        "ry"
      ],
      [
        "at",
        "ure"
      ],
      [
        "ĠI",
        "nd"
      ],
      [
        "Ġc",
        "our"
      ],
      [
        "Ġgr",
        "oup"
      ],
      [
        "Ġc",
        "ity"
      ],
      [
        "Ġp",
        "at"
      ],
      [
        "Ġst",
        "and"
      ],
      [
        "Ġloo",
        "ks"
      ],
      [
        "Ġw",
        "ear"
      ],
      [
        "Ġp",
        "ond"
      ],
      [
        "Ġm",
        "ight"
      ],
      [
        "Ġth",
        "ink"
      ],
      [
        "Ġflow",
        "er"
      ],
      [
        "Ġ19",
        "4"
      ],
      [
        "on",
        "y"
      ],
      [
        "Ġto",
        "wn"
      ],
      [
        "Ġt",
        "all"
      ],
      [
        "Ġgr",
        "ow"
      ],
      [
        "ĠSara",
        "h"
      ],
      [
        "Ġ",
        "-"
      ],
      [
        "ab",
        "y"
      ],
      [
        "ĠB",
        "l"
      ],
      [
        "Ġcol",
        "or"
      ],
      [
        "Ġarri",
        "ved"
      ],
      [
        "Ġde",
        "f"
      ],
      [
        "ĠCh",
        "r"
      ],
      [
        "Ġop",
        "er"
      ],
      [
        "Ġcr",
        "it"
      ],
      [
        "Ġk",
        "ids"
      ],
      [
        "Ġwind",
        "ow"
      ],
      [
        "Ġwith",
        "out"
      ],
      [
        "b",
        "ers"
      ],
      [
        "n",
        "ess"
      ],
      [
        "Ġwa",
        "ved"
      ],
      [
        "el",
        "s"
      ],
      [
        "Ġcl",
        "a"
      ],
      [
        "Ġc",
        "ried"
      ],
      [
        "str",
        "uc"
      ],
      [
        "v",
        "iew"
      ],
      [
        "ĠAmeric",
        "an"
      ],
      [
        "l",
        "ess"
      ],
      [
        "Ġdo",
        "ing"
      ],
      [
        "Ġco",
        "ld"
      ],
      [
        "Ġclim",
        "b"
      ],
      [
        "Ġp",
        "ower"
      ],
      [
        "Ġ",
        "ed"
      ],
      [
        "Ġm",
        "um"
      ],
      [
        "ep",
        "t"
      ],
      [
        "id",
        "ge"
      ],
      [
        "Ġin",
        "s"
      ],
      [
        "Mom",
        "my"
      ],
      [
        "D",
        "on"
      ],
      [
        "j",
        "ect"
      ],
      [
        "ent",
        "ly"
      ],
      [
        "Ġflo",
        "or"
      ],
      [
        "Ġc",
        "reat"
      ],
      [
        "Ġf",
        "ight"
      ],
      [
        "Ġh",
        "ill"
      ],
      [
        "ke",
        "y"
      ],
      [
        "Ġf",
        "all"
      ],
      [
        "a",
        "isy"
      ],
      [
        "Ġ19",
        "6"
      ],
      [
        "ĠC",
        "l"
      ],
      [
        "Ġs",
        "it"
      ],
      [
        "Ġb",
        "unny"
      ],
      [
        "em",
        "p"
      ],
      [
        "Ġbr",
        "ought"
      ],
      [
        "Ġlaug",
        "h"
      ],
      [
        "iver",
        "s"
      ],
      [
        "Ġs",
        "im"
      ],
      [
        "Ġm",
        "ed"
      ],
      [
        "Ġher",
        "self"
      ],
      [
        "ĠI",
        "s"
      ],
      [
        "Ġpr",
        "ot"
      ],
      [
        "Ġre",
        "leased"
      ],
      [
        "Ġsw",
        "ing"
      ],
      [
        "Ġmo",
        "ved"
      ],
      [
        "Ġpro",
        "v"
      ],
      [
        "Ġcar",
        "s"
      ],
      [
        "Ġe",
        "ff"
      ],
      [
        "ro",
        "p"
      ],
      [
        "Ġsurpr",
        "ise"
      ],
      [
        "Ġy",
        "ard"
      ],
      [
        "ĠF",
        "r"
      ],
      [
        "and",
        "y"
      ],
      [
        "Ġho",
        "le"
      ],
      [
        "Tim",
        "my"
      ],
      [
        "id",
        "d"
      ],
      [
        "Ġw",
        "all"
      ],
      [
        "Ġw",
        "ished"
      ],
      [
        "Ġsw",
        "im"
      ],
      [
        "Ġc",
        "ut"
      ],
      [
        "Ġev",
        "ent"
      ],
      [
        "m",
        "b"
      ],
      [
        "Ġenjoy",
        "ed"
      ],
      [
        "Ġb",
        "ag"
      ],
      [
        "ĠC",
        "ar"
      ],
      [
        "Ġdel",
        "ic"
      ],
      [
        "Ġen",
        "ough"
      ],
      [
        "Ġor",
        "gan"
      ],
      [
        "Ġ19",
        "7"
      ],
      [
        "as",
        "ure"
      ],
      [
        "ĠG",
        "er"
      ],
      [
        "Ġs",
        "leep"
      ],
      [
        "Ġth",
        "ough"
      ],
      [
        "Ġcl",
        "ass"
      ],
      [
        "e",
        "ad"
      ],
      [
        "y",
        "p"
      ],
      [
        "Ġhis",
        "t"
      ],
      [
        "ro",
        "om"
      ],
      [
        "Ġh",
        "ot"
      ],
      [
        "or",
        "ing"
      ],
      [
        "il",
        "t"
      ],
      [
        "ĠW",
        "ar"
      ],
      [
        "Ġbu",
        "y"
      ],
      [
        "Ġremember",
        "ed"
      ],
      [
        "Ġf",
        "rog"
      ],
      [
        "Ġm",
        "ouse"
      ],
      [
        "Ġ",
        "ice"
      ],
      [
        "Ġto",
        "wards"
      ],
      [
        "Ġo",
        "cc"
      ],
      [
        "Ġb",
        "ooks"
      ],
      [
        "Ġsp",
        "ot"
      ],
      [
        "i",
        "um"
      ],
      [
        "o",
        "ld"
      ],
      [
        "Ġc",
        "ra"
      ],
      [
        "ut",
        "h"
      ],
      [
        "Ġbl",
        "ack"
      ],
      [
        "re",
        "l"
      ],
      [
        "Ġag",
        "reed"
      ],
      [
        "Ġ",
        "es"
      ],
      [
        "Ġhapp",
        "ily"
      ],
      [
        "Ġb",
        "and"
      ],
      [
        "ell",
        "o"
      ],
      [
        "itt",
        "en"
      ],
      [
        "Ġf",
        "air"
      ],
      [
        "Ġany",
        "thing"
      ],
      [
        "Ġst",
        "orm"
      ],
      [
        "ap",
        "e"
      ],
      [
        "Ġoff",
        "ic"
      ],
      [
        "al",
        "th"
      ],
      [
        "Ġtur",
        "ned"
      ],
      [
        "Jo",
        "hn"
      ],
      [
        "at",
        "ely"
      ],
      [
        "Ġl",
        "ine"
      ],
      [
        "Ġac",
        "ross"
      ],
      [
        "t",
        "en"
      ],
      [
        "Ġk",
        "m"
      ],
      [
        "Ġare",
        "a"
      ],
      [
        "Ġsn",
        "ow"
      ],
      [
        "Ġunderst",
        "and"
      ],
      [
        "u",
        "nd"
      ],
      [
        "Ġcareful",
        "ly"
      ],
      [
        "u",
        "es"
      ],
      [
        "ĠP",
        "ar"
      ],
      [
        "Ġho",
        "pped"
      ],
      [
        "Ġsomet",
        "imes"
      ],
      [
        "Ġt",
        "ail"
      ],
      [
        "Ġwr",
        "ong"
      ],
      [
        "ĠJo",
        "e"
      ],
      [
        "a",
        "ur"
      ],
      [
        "Ġs",
        "ix"
      ],
      [
        "ed",
        "dy"
      ],
      [
        "Ġm",
        "akes"
      ],
      [
        "Ġwr",
        "ote"
      ],
      [
        "ĠW",
        "or"
      ],
      [
        "b",
        "ut"
      ],
      [
        "in",
        "a"
      ],
      [
        "Ġyou",
        "ng"
      ],
      [
        "Ġg",
        "un"
      ],
      [
        "Ġh",
        "ig"
      ],
      [
        "or",
        "ted"
      ],
      [
        "ĠT",
        "r"
      ],
      [
        "id",
        "es"
      ],
      [
        "c",
        "ted"
      ],
      [
        "n",
        "ey"
      ],
      [
        "Ġless",
        "on"
      ],
      [
        "Ġt",
        "able"
      ],
      [
        "Ġcol",
        "le"
      ],
      [
        "ur",
        "ch"
      ],
      [
        "H",
        "ello"
      ],
      [
        "Ġf",
        "ive"
      ],
      [
        "ic",
        "y"
      ],
      [
        "ir",
        "t"
      ],
      [
        "Ġpers",
        "on"
      ],
      [
        "Ġfollow",
        "ing"
      ],
      [
        "ist",
        "s"
      ],
      [
        "ĠBrit",
        "ish"
      ],
      [
        "S",
        "am"
      ],
      [
        "Ġl",
        "ast"
      ],
      [
        "Ġh",
        "um"
      ],
      [
        "Ġc",
        "oun"
      ],
      [
        "Ġbutter",
        "fly"
      ],
      [
        "Ġf",
        "ree"
      ],
      [
        "l",
        "o"
      ],
      [
        "Ġm",
        "ix"
      ],
      [
        "A",
        "t"
      ],
      [
        "in",
        "ally"
      ],
      [
        "ig",
        "ned"
      ],
      [
        "ĠA",
        "ust"
      ],
      [
        "Ġfriend",
        "ly"
      ],
      [
        "aj",
        "or"
      ],
      [
        "Ġmill",
        "ion"
      ],
      [
        "st",
        "em"
      ],
      [
        "Ġday",
        "s"
      ],
      [
        "Ġli",
        "kes"
      ],
      [
        "ĠBen",
        "ny"
      ],
      [
        "c",
        "k"
      ],
      [
        "c",
        "le"
      ],
      [
        "Ġ1",
        "3"
      ],
      [
        "Ġ19",
        "5"
      ],
      [
        "Ġbro",
        "ken"
      ],
      [
        "Ġo",
        "w"
      ],
      [
        "iz",
        "e"
      ],
      [
        "m",
        "ed"
      ],
      [
        "ec",
        "ts"
      ],
      [
        "ther",
        "n"
      ],
      [
        "Ġfin",
        "ally"
      ],
      [
        "or",
        "ts"
      ],
      [
        "Ġtr",
        "ain"
      ],
      [
        "Ġmor",
        "ning"
      ],
      [
        "\"",
        "."
      ],
      [
        "Ġpres",
        "ent"
      ],
      [
        "Ġc",
        "ond"
      ],
      [
        "Ġcharac",
        "ter"
      ],
      [
        "ĠB",
        "e"
      ],
      [
        "Ġde",
        "ep"
      ],
      [
        "Ġsurpr",
        "ised"
      ],
      [
        "Ġ",
        "ve"
      ],
      [
        "Ġm",
        "em"
      ],
      [
        "Ġn",
        "orth"
      ],
      [
        "Ġle",
        "aves"
      ],
      [
        "Ġf",
        "illed"
      ],
      [
        "ĠN",
        "ow"
      ],
      [
        "u",
        "z"
      ],
      [
        "Ġg",
        "one"
      ],
      [
        "it",
        "al"
      ],
      [
        "ĠA",
        "ug"
      ],
      [
        "Ġall",
        "ow"
      ],
      [
        "i",
        "pp"
      ],
      [
        "Ġel",
        "se"
      ],
      [
        "g",
        "y"
      ],
      [
        "Ġcol",
        "ors"
      ],
      [
        "ĠAug",
        "ust"
      ],
      [
        "ĠS",
        "ally"
      ],
      [
        "ag",
        "es"
      ],
      [
        "Ġro",
        "ad"
      ],
      [
        "F",
        "rom"
      ],
      [
        "Ġgo",
        "ver"
      ],
      [
        "Ġt",
        "ight"
      ],
      [
        "Ġsome",
        "one"
      ],
      [
        "Ġst",
        "ate"
      ],
      [
        "e",
        "x"
      ],
      [
        "Ġse",
        "ar"
      ],
      [
        "ĠHow",
        "ever"
      ],
      [
        "Ġb",
        "ug"
      ],
      [
        "Ġp",
        "lease"
      ],
      [
        "Ġse",
        "em"
      ],
      [
        "Ġt",
        "reat"
      ],
      [
        "Ġp",
        "upp"
      ],
      [
        "ĠG",
        "rand"
      ],
      [
        "ĠA",
        "d"
      ],
      [
        "Ġbre",
        "ak"
      ],
      [
        "ĠM",
        "c"
      ],
      [
        "ĠC",
        "ol"
      ],
      [
        "os",
        "ed"
      ],
      [
        "ack",
        "s"
      ],
      [
        "Ġ19",
        "1"
      ],
      [
        "Ġe",
        "as"
      ],
      [
        "ce",
        "pt"
      ],
      [
        "he",
        "l"
      ],
      [
        "Ġwonder",
        "ful"
      ],
      [
        "Ġan",
        "n"
      ],
      [
        "Ġad",
        "v"
      ],
      [
        "Ġwan",
        "ts"
      ],
      [
        "Ġperf",
        "ect"
      ],
      [
        "Ġcons",
        "id"
      ],
      [
        "Ġd",
        "anc"
      ],
      [
        "Ġdes",
        "ign"
      ],
      [
        "uff",
        "y"
      ],
      [
        "ĠD",
        "aisy"
      ],
      [
        "ĠS",
        "ept"
      ],
      [
        "is",
        "es"
      ],
      [
        "Ġhe",
        "avy"
      ],
      [
        ".",
        "."
      ],
      [
        "qu",
        "e"
      ],
      [
        "r",
        "ay"
      ],
      [
        "v",
        "ious"
      ],
      [
        "re",
        "et"
      ],
      [
        "Ġsa",
        "il"
      ],
      [
        "Ġthan",
        "k"
      ],
      [
        "Ġget",
        "ting"
      ],
      [
        "o",
        "om"
      ],
      [
        "Ġas",
        "k"
      ],
      [
        "Ġmom",
        "ent"
      ],
      [
        "Ġco",
        "ver"
      ],
      [
        "it",
        "er"
      ],
      [
        "ĠU",
        "S"
      ],
      [
        "is",
        "m"
      ],
      [
        "Ġc",
        "amp"
      ],
      [
        "Ġfo",
        "ot"
      ],
      [
        "at",
        "s"
      ],
      [
        "Ġan",
        "t"
      ],
      [
        "ĠJ",
        "u"
      ],
      [
        "Ġdelic",
        "ious"
      ],
      [
        "ur",
        "al"
      ],
      [
        "Ġs",
        "ince"
      ],
      [
        "Ġpart",
        "ic"
      ],
      [
        "p",
        "ort"
      ],
      [
        "Ġv",
        "ar"
      ],
      [
        "ĠSept",
        "ember"
      ],
      [
        "if",
        "e"
      ],
      [
        "Ġtry",
        "ing"
      ],
      [
        "Ġcast",
        "le"
      ],
      [
        "g",
        "in"
      ],
      [
        "Ġvis",
        "it"
      ],
      [
        "Ġrece",
        "ived"
      ],
      [
        "Ġsp",
        "l"
      ],
      [
        "Ġ19",
        "3"
      ],
      [
        "Ġl",
        "ion"
      ],
      [
        "Ġ",
        "$"
      ],
      [
        "Ġle",
        "ave"
      ],
      [
        "Ġpar",
        "ty"
      ],
      [
        "Ġd",
        "am"
      ],
      [
        "es",
        "e"
      ],
      [
        "Ġinc",
        "re"
      ],
      [
        "t",
        "o"
      ],
      [
        "ar",
        "r"
      ],
      [
        "Ġr",
        "ace"
      ],
      [
        "Ġli",
        "ving"
      ],
      [
        "Ġstar",
        "t"
      ],
      [
        "Ġal",
        "one"
      ],
      [
        "Ġof",
        "ten"
      ],
      [
        "Ġr",
        "oll"
      ],
      [
        "ĠP",
        "l"
      ],
      [
        "Ġd",
        "ream"
      ],
      [
        "Th",
        "is"
      ],
      [
        "c",
        "es"
      ],
      [
        "Ġr",
        "iver"
      ],
      [
        "Ġj",
        "ob"
      ],
      [
        "Ġdin",
        "ner"
      ],
      [
        "ĠGer",
        "man"
      ],
      [
        "Ã",
        "©"
      ],
      [
        "Ġ1",
        "4"
      ],
      [
        "Ġsp",
        "e"
      ],
      [
        "Ġgover",
        "n"
      ],
      [
        "our",
        "s"
      ],
      [
        "ĠW",
        "hat"
      ],
      [
        "Ġcl",
        "ot"
      ],
      [
        "Ġc",
        "a"
      ],
      [
        "Ġbu",
        "ilt"
      ],
      [
        "i",
        "ec"
      ],
      [
        "t",
        "e"
      ],
      [
        "ĠChr",
        "ist"
      ],
      [
        "ĠSt",
        "ates"
      ],
      [
        "al",
        "es"
      ],
      [
        "J",
        "ack"
      ],
      [
        "The",
        "n"
      ],
      [
        "Ġfe",
        "at"
      ],
      [
        "id",
        "ing"
      ],
      [
        "Ġpicture",
        "s"
      ],
      [
        "Ġth",
        "ose"
      ],
      [
        "Ġte",
        "ac"
      ],
      [
        "Ġ",
        "Q"
      ],
      [
        "an",
        "ts"
      ],
      [
        "ĠJ",
        "an"
      ],
      [
        "ord",
        "ing"
      ],
      [
        "Ġw",
        "et"
      ],
      [
        "Ġsong",
        "s"
      ],
      [
        "Ġorigin",
        "al"
      ],
      [
        "l",
        "a"
      ],
      [
        "Ġsh",
        "ort"
      ],
      [
        "Ġ",
        "%"
      ],
      [
        "Ġm",
        "ust"
      ],
      [
        "ĠL",
        "ila"
      ],
      [
        "Ġp",
        "ri"
      ],
      [
        "Ġrun",
        "s"
      ],
      [
        "un",
        "g"
      ],
      [
        "ag",
        "ed"
      ],
      [
        "ĠWor",
        "ld"
      ],
      [
        "Ġm",
        "oney"
      ],
      [
        "ĠB",
        "illy"
      ],
      [
        "'",
        "ll"
      ],
      [
        "r",
        "on"
      ],
      [
        "al",
        "f"
      ],
      [
        "Ġevery",
        "thing"
      ],
      [
        "Ġgrand",
        "ma"
      ],
      [
        "ĠN",
        "orth"
      ],
      [
        "Ġy",
        "es"
      ],
      [
        "Ġsc",
        "ary"
      ],
      [
        "ĠC",
        "on"
      ],
      [
        "ĠJ",
        "une"
      ],
      [
        "s",
        "w"
      ],
      [
        "Ġd",
        "est"
      ],
      [
        "es",
        "ted"
      ],
      [
        "Ġsm",
        "ell"
      ],
      [
        "Ġtal",
        "k"
      ],
      [
        "Ġamaz",
        "ing"
      ],
      [
        "Ġs",
        "outh"
      ],
      [
        "Ġpupp",
        "y"
      ],
      [
        "Ġm",
        "ajor"
      ],
      [
        "il",
        "ity"
      ],
      [
        "Ġbuild",
        "ing"
      ],
      [
        "un",
        "ch"
      ],
      [
        "Ġp",
        "ot"
      ],
      [
        "an",
        "ch"
      ],
      [
        "Ġp",
        "ink"
      ],
      [
        "Ġfo",
        "x"
      ],
      [
        "Ġstar",
        "s"
      ],
      [
        "ĠCom",
        "m"
      ],
      [
        "ĠK",
        "ing"
      ],
      [
        "i",
        "ence"
      ],
      [
        "pr",
        "il"
      ],
      [
        "et",
        "h"
      ],
      [
        "Ġfly",
        "ing"
      ],
      [
        "Ġstay",
        "ed"
      ],
      [
        "ĠF",
        "or"
      ],
      [
        "Ġbe",
        "ach"
      ],
      [
        "ĠA",
        "pril"
      ],
      [
        "Ġsy",
        "stem"
      ],
      [
        "ĠP",
        "r"
      ],
      [
        "Ġsing",
        "le"
      ],
      [
        "Ġpos",
        "s"
      ],
      [
        "Ġs",
        "ister"
      ],
      [
        "Ġapp",
        "ro"
      ],
      [
        "y",
        "l"
      ],
      [
        "Ġso",
        "ld"
      ],
      [
        "Ġfin",
        "al"
      ],
      [
        "Ġtur",
        "n"
      ],
      [
        "Ġp",
        "et"
      ],
      [
        "ĠT",
        "o"
      ],
      [
        "Ġt",
        "ast"
      ],
      [
        "Ġpubl",
        "ic"
      ],
      [
        "Ġcook",
        "ies"
      ],
      [
        "z",
        "e"
      ],
      [
        "er",
        "y"
      ],
      [
        "Ġd",
        "anger"
      ],
      [
        "Ġp",
        "ul"
      ],
      [
        "iv",
        "ision"
      ],
      [
        "a",
        "id"
      ],
      [
        "is",
        "ted"
      ],
      [
        "ec",
        "h"
      ],
      [
        "iec",
        "es"
      ],
      [
        "Ġclim",
        "bed"
      ],
      [
        "p",
        "le"
      ],
      [
        "Ġhun",
        "gry"
      ],
      [
        "Ġcl",
        "oud"
      ],
      [
        "Ġclot",
        "hes"
      ],
      [
        "Ġm",
        "en"
      ],
      [
        "Ġbec",
        "ome"
      ],
      [
        "Ġwas",
        "n"
      ],
      [
        "H",
        "is"
      ],
      [
        "en",
        "e"
      ],
      [
        "uck",
        "y"
      ],
      [
        "Ġn",
        "ec"
      ],
      [
        "ĠJ",
        "im"
      ],
      [
        "ĠG",
        "e"
      ],
      [
        "Ġpret",
        "end"
      ],
      [
        "ide",
        "o"
      ],
      [
        "Ġb",
        "aby"
      ],
      [
        "Ġr",
        "ide"
      ],
      [
        "Ġs",
        "ugg"
      ],
      [
        "Ġl",
        "ed"
      ],
      [
        "ag",
        "ue"
      ],
      [
        "Ġa",
        "v"
      ],
      [
        "n",
        "e"
      ],
      [
        "en",
        "g"
      ],
      [
        "h",
        "am"
      ],
      [
        "ĠS",
        "outh"
      ],
      [
        "Ġad",
        "m"
      ],
      [
        "Ġdescri",
        "bed"
      ],
      [
        "Ġp",
        "ie"
      ],
      [
        "Ġforg",
        "ot"
      ],
      [
        "ic",
        "ks"
      ],
      [
        "ĠI",
        "I"
      ],
      [
        "Ġr",
        "ound"
      ],
      [
        "ĠAust",
        "ral"
      ],
      [
        "Ġt",
        "it"
      ],
      [
        "ig",
        "g"
      ],
      [
        "iv",
        "ely"
      ],
      [
        "ĠO",
        "ct"
      ],
      [
        "Ġlist",
        "ened"
      ],
      [
        "us",
        "h"
      ],
      [
        "ĠMay",
        "be"
      ],
      [
        "Ġc",
        "ur"
      ],
      [
        "Ġv",
        "iew"
      ],
      [
        "ĠN",
        "o"
      ],
      [
        "Ġinst",
        "ead"
      ],
      [
        "Ġinclud",
        "ed"
      ],
      [
        "Ġ",
        "]"
      ],
      [
        "Ġp",
        "ieces"
      ],
      [
        "ĠE",
        "ur"
      ],
      [
        "l",
        "ish"
      ],
      [
        "us",
        "s"
      ],
      [
        "Ġcomp",
        "le"
      ],
      [
        "le",
        "v"
      ],
      [
        "Ġsmil",
        "es"
      ],
      [
        "b",
        "s"
      ],
      [
        "Ġb",
        "att"
      ],
      [
        "Ġc",
        "ir"
      ],
      [
        "ic",
        "ally"
      ],
      [
        "Ġas",
        "ks"
      ],
      [
        "in",
        "ation"
      ],
      [
        "Ġv",
        "ill"
      ],
      [
        "ĠG",
        "r"
      ],
      [
        "ĠOct",
        "ober"
      ],
      [
        "Ġ",
        "["
      ],
      [
        "Ġfe",
        "et"
      ],
      [
        "Ġ",
        "vers"
      ],
      [
        "Ġw",
        "he"
      ],
      [
        "if",
        "ied"
      ],
      [
        "M",
        "ay"
      ],
      [
        "Ġre",
        "qu"
      ],
      [
        "Ġb",
        "ur"
      ],
      [
        "Ġd",
        "ue"
      ],
      [
        "Ġj",
        "our"
      ],
      [
        "bo",
        "ard"
      ],
      [
        "Ġsh",
        "ar"
      ],
      [
        "Ġmor",
        "al"
      ],
      [
        "Ġsupp",
        "ort"
      ],
      [
        "i",
        "pped"
      ],
      [
        "Ġdis",
        "app"
      ],
      [
        "Ġp",
        "ort"
      ],
      [
        "Ġd",
        "ance"
      ],
      [
        "Ġre",
        "ach"
      ],
      [
        "Ġar",
        "m"
      ],
      [
        "Ġen",
        "g"
      ],
      [
        "ian",
        "s"
      ],
      [
        "Ġstr",
        "ange"
      ],
      [
        "Ġdad",
        "dy"
      ],
      [
        "a",
        "h"
      ],
      [
        "ak",
        "en"
      ],
      [
        "Ġwa",
        "ited"
      ],
      [
        "ĠJu",
        "ly"
      ],
      [
        "ĠM",
        "r"
      ],
      [
        "if",
        "t"
      ],
      [
        "is",
        "on"
      ],
      [
        "at",
        "or"
      ],
      [
        "Ġp",
        "ast"
      ],
      [
        "Ġm",
        "ark"
      ],
      [
        "Ġclos",
        "ed"
      ],
      [
        "ĠF",
        "e"
      ],
      [
        "up",
        "er"
      ],
      [
        "Ġl",
        "ake"
      ],
      [
        "Ġpul",
        "led"
      ],
      [
        "Ġm",
        "outh"
      ],
      [
        "Ġv",
        "al"
      ],
      [
        "ut",
        "ion"
      ],
      [
        "ir",
        "rel"
      ],
      [
        "Ġb",
        "ased"
      ],
      [
        "g",
        "on"
      ],
      [
        "i",
        "ant"
      ],
      [
        "ac",
        "ked"
      ],
      [
        "Ġde",
        "ath"
      ],
      [
        "Ġ.",
        ".."
      ],
      [
        "el",
        "c"
      ],
      [
        "ens",
        "ive"
      ],
      [
        "Ġh",
        "ide"
      ],
      [
        "Ġc",
        "ream"
      ],
      [
        "Ġword",
        "s"
      ],
      [
        "Ġs",
        "illy"
      ],
      [
        "i",
        "od"
      ],
      [
        "Ġinter",
        "est"
      ],
      [
        "ĠW",
        "ill"
      ],
      [
        "Ġcour",
        "se"
      ],
      [
        "ĠW",
        "ith"
      ],
      [
        "olog",
        "y"
      ],
      [
        "s",
        "et"
      ],
      [
        "Ġb",
        "ott"
      ],
      [
        "Ġh",
        "it"
      ],
      [
        "en",
        "se"
      ],
      [
        "Ġt",
        "eddy"
      ],
      [
        "Ġc",
        "e"
      ],
      [
        "ount",
        "ain"
      ],
      [
        "Ġme",
        "et"
      ],
      [
        "Ġprom",
        "ised"
      ],
      [
        "Ġan",
        "sw"
      ],
      [
        "Ġsh",
        "ared"
      ],
      [
        "Ġretur",
        "ned"
      ],
      [
        "t",
        "ain"
      ],
      [
        "ĠY",
        "ork"
      ],
      [
        "ĠM",
        "ary"
      ],
      [
        "Ġsqu",
        "irrel"
      ],
      [
        "Ġcomp",
        "et"
      ],
      [
        "Ġt",
        "aking"
      ],
      [
        "os",
        "p"
      ],
      [
        "Ġwood",
        "s"
      ],
      [
        "ag",
        "er"
      ],
      [
        "aug",
        "h"
      ],
      [
        "Ġamaz",
        "ed"
      ],
      [
        "Ġ2",
        "5"
      ],
      [
        "ĠJan",
        "uary"
      ],
      [
        "Ġm",
        "atch"
      ],
      [
        "Ġse",
        "a"
      ],
      [
        "May",
        "be"
      ],
      [
        "il",
        "ar"
      ],
      [
        "Ġcl",
        "ub"
      ],
      [
        "Ġfr",
        "ont"
      ],
      [
        "Ġown",
        "er"
      ],
      [
        "Ġtow",
        "er"
      ],
      [
        "y",
        "ing"
      ],
      [
        "Ġwith",
        "in"
      ],
      [
        "Ġsp",
        "ark"
      ],
      [
        "Ġk",
        "ing"
      ],
      [
        "Ġlong",
        "er"
      ],
      [
        "Ġbow",
        "l"
      ],
      [
        "Ġs",
        "ent"
      ],
      [
        "ar",
        "s"
      ],
      [
        "Ġbr",
        "ing"
      ],
      [
        "Ġslow",
        "ly"
      ],
      [
        "Ġc",
        "ard"
      ],
      [
        "ent",
        "ion"
      ],
      [
        "Ġcon",
        "struc"
      ],
      [
        "f",
        "ort"
      ],
      [
        "Ġch",
        "ang"
      ],
      [
        "Ġpro",
        "ble"
      ],
      [
        "Ġbro",
        "ke"
      ],
      [
        "c",
        "hes"
      ],
      [
        "ir",
        "ty"
      ],
      [
        "O",
        "h"
      ],
      [
        "ect",
        "ion"
      ],
      [
        "Ġr",
        "a"
      ],
      [
        "Ġj",
        "oy"
      ],
      [
        "Ġmon",
        "th"
      ],
      [
        "Ġd",
        "em"
      ],
      [
        "ress",
        "ed"
      ],
      [
        "p",
        "ar"
      ],
      [
        "igh",
        "b"
      ],
      [
        "anc",
        "es"
      ],
      [
        "re",
        "ad"
      ],
      [
        "Ġth",
        "ird"
      ],
      [
        "Ġex",
        "per"
      ],
      [
        "Ġpain",
        "t"
      ],
      [
        "e",
        "al"
      ],
      [
        "Ġc",
        "up"
      ],
      [
        "Ġbo",
        "dy"
      ],
      [
        "Ġ3",
        "0"
      ],
      [
        "Ġl",
        "ow"
      ],
      [
        "Ġthr",
        "ow"
      ],
      [
        "ĠTom",
        "my"
      ],
      [
        "Ġhig",
        "her"
      ],
      [
        "ic",
        "es"
      ],
      [
        "Ġne",
        "ighb"
      ],
      [
        "Ġqu",
        "est"
      ],
      [
        "on",
        "es"
      ],
      [
        "ĠDe",
        "ce"
      ],
      [
        "Ġto",
        "day"
      ],
      [
        "ĠA",
        "my"
      ],
      [
        "Ġj",
        "u"
      ],
      [
        "ĠN",
        "ove"
      ],
      [
        "ivers",
        "ity"
      ],
      [
        "ĠNove",
        "mber"
      ],
      [
        "Ġh",
        "alf"
      ],
      [
        "Ġ",
        "er"
      ],
      [
        "Ġappear",
        "ed"
      ],
      [
        "ĠDece",
        "mber"
      ],
      [
        "Ġspec",
        "ies"
      ],
      [
        "ĠMar",
        "ch"
      ],
      [
        "M",
        "ax"
      ],
      [
        "Ġt",
        "yp"
      ],
      [
        "it",
        "ions"
      ],
      [
        "Ġpre",
        "vious"
      ],
      [
        "Ġhelp",
        "ing"
      ],
      [
        "Ġper",
        "iod"
      ],
      [
        "Ġest",
        "ab"
      ],
      [
        "Ġor",
        "d"
      ],
      [
        "Ġv",
        "ideo"
      ],
      [
        "Ġpr",
        "act"
      ],
      [
        "Ġthin",
        "ks"
      ],
      [
        "Ġbig",
        "ger"
      ],
      [
        "Ġmag",
        "ical"
      ],
      [
        "it",
        "ch"
      ],
      [
        "Ġfr",
        "uit"
      ],
      [
        "Ġre",
        "view"
      ],
      [
        "r",
        "it"
      ],
      [
        "iss",
        "ion"
      ],
      [
        "o",
        "k"
      ],
      [
        "Ġc",
        "ross"
      ],
      [
        "Ġf",
        "ather"
      ],
      [
        "ol",
        "f"
      ],
      [
        "Ġdoll",
        "s"
      ],
      [
        "Ġc",
        "al"
      ],
      [
        "Ġc",
        "orn"
      ],
      [
        "ir",
        "th"
      ],
      [
        "Ġfar",
        "mer"
      ],
      [
        "Ġevent",
        "ually"
      ],
      [
        "Ġgovern",
        "ment"
      ],
      [
        "m",
        "ost"
      ],
      [
        "ul",
        "ation"
      ],
      [
        "Ġanim",
        "al"
      ],
      [
        "ion",
        "al"
      ],
      [
        "Ġbr",
        "own"
      ],
      [
        "s",
        "c"
      ],
      [
        "er",
        "ing"
      ],
      [
        "or",
        "se"
      ],
      [
        "Ġke",
        "y"
      ],
      [
        "m",
        "ing"
      ],
      [
        "Ġc",
        "andy"
      ],
      [
        "itt",
        "ing"
      ],
      [
        "Ġor",
        "der"
      ],
      [
        "Ġt",
        "imes"
      ],
      [
        "Ġball",
        "oon"
      ],
      [
        "Ġfur",
        "ther"
      ],
      [
        "Ġto",
        "ur"
      ],
      [
        "og",
        "ra"
      ],
      [
        "um",
        "b"
      ],
      [
        "Ġmo",
        "d"
      ],
      [
        "Ġbelie",
        "ve"
      ],
      [
        "Ġo",
        "pp"
      ],
      [
        "Ġal",
        "though"
      ],
      [
        "Ġresp",
        "ect"
      ],
      [
        "augh",
        "ter"
      ],
      [
        "Ġr",
        "ad"
      ],
      [
        "Ġevery",
        "where"
      ],
      [
        "enc",
        "es"
      ],
      [
        "Ġdisc",
        "over"
      ],
      [
        "Ġ1",
        "00"
      ],
      [
        "uz",
        "z"
      ],
      [
        "p",
        "ed"
      ],
      [
        "ask",
        "et"
      ],
      [
        "f",
        "ic"
      ],
      [
        "Ġso",
        "l"
      ],
      [
        "Ġwor",
        "ried"
      ],
      [
        "Ġrel",
        "ie"
      ],
      [
        "Ġb",
        "ike"
      ],
      [
        "Ġst",
        "ories"
      ],
      [
        "Ġ19",
        "2"
      ],
      [
        "Ġ",
        "Â"
      ],
      [
        "oc",
        "ked"
      ],
      [
        "Ġdanger",
        "ous"
      ],
      [
        "ĠEur",
        "ope"
      ],
      [
        "g",
        "g"
      ],
      [
        "Ġpoin",
        "t"
      ],
      [
        "Ġp",
        "ull"
      ],
      [
        "Ġf",
        "aster"
      ],
      [
        "ĠN",
        "ational"
      ],
      [
        "ate",
        "ful"
      ],
      [
        "o",
        "v"
      ],
      [
        "Ġm",
        "ot"
      ],
      [
        "Ġw",
        "elc"
      ],
      [
        "a",
        "ff"
      ],
      [
        "Ġd",
        "uck"
      ],
      [
        "l",
        "er"
      ],
      [
        "al",
        "d"
      ],
      [
        "Ġdo",
        "ctor"
      ],
      [
        "rop",
        "ical"
      ],
      [
        "i",
        "ation"
      ],
      [
        "Ġh",
        "on"
      ],
      [
        "Ġsec",
        "ret"
      ],
      [
        "ĠS",
        "e"
      ],
      [
        "ĠB",
        "y"
      ],
      [
        "Ġgr",
        "ateful"
      ],
      [
        "Ġexpl",
        "ained"
      ],
      [
        "a",
        "e"
      ],
      [
        "ĠP",
        "h"
      ],
      [
        "O",
        "K"
      ],
      [
        "in",
        "ess"
      ],
      [
        "Ġprin",
        "cess"
      ],
      [
        "O",
        "kay"
      ],
      [
        "ĠR",
        "o"
      ],
      [
        "Ġbl",
        "ank"
      ],
      [
        "r",
        "ing"
      ],
      [
        "Ġnear",
        "by"
      ],
      [
        "ĠEng",
        "land"
      ],
      [
        "Ġe",
        "ight"
      ],
      [
        "an",
        "a"
      ],
      [
        "Ġro",
        "le"
      ],
      [
        "Ġa",
        "uth"
      ],
      [
        "Ġk",
        "iss"
      ],
      [
        "Ġmo",
        "der"
      ],
      [
        "Ġp",
        "en"
      ],
      [
        "s",
        "p"
      ],
      [
        "ĠR",
        "iver"
      ],
      [
        "alth",
        "y"
      ],
      [
        "Ġw",
        "ag"
      ],
      [
        "it",
        "ary"
      ],
      [
        "Ġcar",
        "ry"
      ],
      [
        "d",
        "om"
      ],
      [
        "Ġis",
        "land"
      ],
      [
        "Ġqu",
        "iet"
      ],
      [
        "in",
        "t"
      ],
      [
        "ĠC",
        "oun"
      ],
      [
        "Ġteac",
        "her"
      ],
      [
        "ro",
        "duc"
      ],
      [
        "Ġloc",
        "al"
      ],
      [
        "u",
        "se"
      ],
      [
        "Ġt",
        "akes"
      ],
      [
        "uc",
        "ks"
      ],
      [
        "Ġste",
        "pped"
      ],
      [
        "Ġpo",
        "st"
      ],
      [
        "Ġhop",
        "ed"
      ],
      [
        "i",
        "or"
      ],
      [
        "Ġis",
        "s"
      ],
      [
        "or",
        "row"
      ],
      [
        "ĠM",
        "an"
      ],
      [
        "ro",
        "y"
      ],
      [
        "ĠO",
        "r"
      ],
      [
        "it",
        "her"
      ],
      [
        "Ġ201",
        "0"
      ],
      [
        "ain",
        "ing"
      ],
      [
        "Ġf",
        "arm"
      ],
      [
        "Ġwr",
        "itten"
      ],
      [
        "Ġdra",
        "gon"
      ],
      [
        "Ġch",
        "air"
      ],
      [
        "Ġst",
        "at"
      ],
      [
        "ĠE",
        "d"
      ],
      [
        "Ġcry",
        "ing"
      ],
      [
        "im",
        "ed"
      ],
      [
        "ĠC",
        "ity"
      ],
      [
        "ub",
        "b"
      ],
      [
        "Ġus",
        "ing"
      ],
      [
        "in",
        "ing"
      ],
      [
        "Ġhe",
        "art"
      ],
      [
        "Ġplay",
        "er"
      ],
      [
        "lev",
        "ision"
      ],
      [
        "pp",
        "ing"
      ],
      [
        "Ġdro",
        "pped"
      ],
      [
        "Ġsim",
        "ilar"
      ],
      [
        "ĠGe",
        "or"
      ],
      [
        "Ġd",
        "aughter"
      ],
      [
        "Ġl",
        "aw"
      ],
      [
        "Ġtr",
        "ad"
      ],
      [
        "Ġtr",
        "ack"
      ],
      [
        "Ġwe",
        "ek"
      ],
      [
        "iv",
        "es"
      ],
      [
        "n",
        "am"
      ],
      [
        "is",
        "ing"
      ],
      [
        "Ġmon",
        "key"
      ],
      [
        "Ġcar",
        "r"
      ],
      [
        "Ġpop",
        "ular"
      ],
      [
        "Ġb",
        "asket"
      ],
      [
        "m",
        "p"
      ],
      [
        "ou",
        "ble"
      ],
      [
        "ĠJ",
        "ill"
      ],
      [
        "Ġcomm",
        "on"
      ],
      [
        "a",
        "ul"
      ],
      [
        "Ġcolor",
        "ful"
      ],
      [
        "ĠS",
        "ome"
      ],
      [
        "Ġtw",
        "ins"
      ],
      [
        "Ġcomp",
        "any"
      ],
      [
        "Ġb",
        "irth"
      ],
      [
        "Ġpie",
        "ce"
      ],
      [
        "Ġbel",
        "ong"
      ],
      [
        "S",
        "ure"
      ],
      [
        "as",
        "ing"
      ],
      [
        "Ġhow",
        "ever"
      ],
      [
        "ed",
        "er"
      ],
      [
        "Ġth",
        "rew"
      ],
      [
        "ĠW",
        "est"
      ],
      [
        "Ġf",
        "ig"
      ],
      [
        "Ġsm",
        "art"
      ],
      [
        "Ġcom",
        "b"
      ],
      [
        "Ġob",
        "s"
      ],
      [
        "Ġgiv",
        "en"
      ],
      [
        "Ġpro",
        "p"
      ],
      [
        "Ġpus",
        "hed"
      ],
      [
        "av",
        "ing"
      ],
      [
        "Ġrecord",
        "ed"
      ],
      [
        "Ġadd",
        "ition"
      ],
      [
        "H",
        "i"
      ],
      [
        "ĠD",
        "uring"
      ],
      [
        "Ġ200",
        "8"
      ],
      [
        "Ġeat",
        "ing"
      ],
      [
        "om",
        "in"
      ],
      [
        "ĠM",
        "olly"
      ],
      [
        "a",
        "f"
      ],
      [
        "ud",
        "e"
      ],
      [
        "W",
        "hy"
      ],
      [
        "Ġar",
        "ch"
      ],
      [
        "Ġd",
        "irty"
      ],
      [
        "Ġm",
        "ach"
      ],
      [
        "b",
        "ow"
      ],
      [
        "o",
        "le"
      ],
      [
        "Ġb",
        "uck"
      ],
      [
        "Ġcount",
        "ry"
      ],
      [
        "al",
        "y"
      ],
      [
        "we",
        "et"
      ],
      [
        "l",
        "u"
      ],
      [
        "pp",
        "er"
      ],
      [
        "Ġconsid",
        "ered"
      ],
      [
        "Ġpartic",
        "ular"
      ],
      [
        "Ġt",
        "aken"
      ],
      [
        "Ġcomm",
        "and"
      ],
      [
        "Ġsing",
        "ing"
      ],
      [
        "Ġpol",
        "it"
      ],
      [
        "ĠE",
        "l"
      ],
      [
        "Ġd",
        "ry"
      ],
      [
        "ĠM",
        "ich"
      ],
      [
        "Ġw",
        "ide"
      ],
      [
        "ren",
        "ch"
      ],
      [
        "y",
        "ard"
      ],
      [
        "Ġ200",
        "9"
      ],
      [
        "Ġg",
        "ent"
      ],
      [
        "Ġsh",
        "op"
      ],
      [
        "Ġad",
        "ded"
      ],
      [
        "Ġam",
        "ong"
      ],
      [
        "Ġsp",
        "ent"
      ],
      [
        "pl",
        "ay"
      ],
      [
        "Ġtur",
        "ns"
      ],
      [
        "Ġsh",
        "ap"
      ],
      [
        "Ġen",
        "c"
      ],
      [
        "ĠS",
        "m"
      ],
      [
        "Ġfor",
        "mer"
      ],
      [
        "Ġsuccess",
        "ful"
      ],
      [
        "Ġw",
        "oman"
      ],
      [
        "Ġ2",
        "1"
      ],
      [
        "Ġs",
        "our"
      ],
      [
        "Ġp",
        "ig"
      ],
      [
        "Ġin",
        "it"
      ],
      [
        "Ġn",
        "et"
      ],
      [
        "Ġfeel",
        "s"
      ],
      [
        "Ġhist",
        "ory"
      ],
      [
        "y",
        "le"
      ],
      [
        "Ġfl",
        "ag"
      ],
      [
        "it",
        "ive"
      ],
      [
        "gr",
        "ound"
      ],
      [
        "es",
        "tern"
      ],
      [
        "ĠA",
        "b"
      ],
      [
        "Ġal",
        "most"
      ],
      [
        "Ġt",
        "en"
      ],
      [
        "Ġar",
        "ms"
      ],
      [
        "Ġbr",
        "anch"
      ],
      [
        "c",
        "ial"
      ],
      [
        "Ġn",
        "est"
      ],
      [
        "Ġb",
        "ath"
      ],
      [
        "Ġst",
        "uck"
      ],
      [
        "Ġacc",
        "ident"
      ],
      [
        "Ġmag",
        "ic"
      ],
      [
        "Ġup",
        "set"
      ],
      [
        "Ġon",
        "ce"
      ],
      [
        "ĠB",
        "att"
      ],
      [
        "Ġle",
        "vel"
      ],
      [
        "Ġnec",
        "k"
      ],
      [
        "Ġgent",
        "le"
      ],
      [
        "Ġs",
        "on"
      ],
      [
        "Ġw",
        "est"
      ],
      [
        "Ġr",
        "u"
      ],
      [
        "ĠFl",
        "uffy"
      ],
      [
        "Ġf",
        "act"
      ],
      [
        "Ġd",
        "eter"
      ],
      [
        "Ġe",
        "ast"
      ],
      [
        "Ġcr",
        "ay"
      ],
      [
        "Ġcir",
        "c"
      ],
      [
        "u",
        "ce"
      ],
      [
        "Ġc",
        "ou"
      ],
      [
        "ri",
        "but"
      ],
      [
        "Ġdire",
        "ct"
      ],
      [
        "t",
        "le"
      ],
      [
        "Ġvers",
        "ion"
      ],
      [
        "Ġn",
        "ap"
      ],
      [
        "Ġc",
        "aught"
      ],
      [
        "Ġp",
        "ath"
      ],
      [
        "ĠCh",
        "ar"
      ],
      [
        "ĠEng",
        "lish"
      ],
      [
        "p",
        "ite"
      ],
      [
        "Ġser",
        "v"
      ],
      [
        "Ġst",
        "ri"
      ],
      [
        "Ġwould",
        "n"
      ],
      [
        "Ġvill",
        "age"
      ],
      [
        "Ġmon",
        "ster"
      ],
      [
        "Ġs",
        "ang"
      ],
      [
        "Ġgo",
        "ld"
      ],
      [
        "Ġdif",
        "fic"
      ],
      [
        "Ġcom",
        "es"
      ],
      [
        "Ġpubl",
        "ished"
      ],
      [
        "Ġseem",
        "ed"
      ],
      [
        "Ġl",
        "on"
      ],
      [
        "Ġli",
        "ve"
      ],
      [
        "Ġtre",
        "asure"
      ],
      [
        "Ġcomp",
        "let"
      ],
      [
        "Ġto",
        "t"
      ],
      [
        "Ġm",
        "ine"
      ],
      [
        "Ġhapp",
        "en"
      ],
      [
        "Ġc",
        "or"
      ],
      [
        "Ġl",
        "ay"
      ],
      [
        "n",
        "el"
      ],
      [
        "os",
        "aur"
      ],
      [
        "Ġsho",
        "es"
      ],
      [
        "Ġw",
        "ings"
      ],
      [
        "Ġr",
        "ocks"
      ],
      [
        "Ġe",
        "qu"
      ],
      [
        "ep",
        "end"
      ],
      [
        "Ġow",
        "l"
      ],
      [
        "Ġt",
        "est"
      ],
      [
        "Ġre",
        "lease"
      ],
      [
        "ce",
        "an"
      ],
      [
        "iv",
        "al"
      ],
      [
        "idd",
        "le"
      ],
      [
        "Ġdro",
        "ve"
      ],
      [
        "Ġf",
        "it"
      ],
      [
        "ĠD",
        "ivision"
      ],
      [
        "Ġfair",
        "y"
      ],
      [
        "ric",
        "ane"
      ],
      [
        "a",
        "i"
      ],
      [
        "g",
        "es"
      ],
      [
        "Ġwho",
        "le"
      ],
      [
        "Ġstr",
        "uc"
      ],
      [
        "Ġcle",
        "ar"
      ],
      [
        "Ġmoder",
        "n"
      ],
      [
        "Ġb",
        "ite"
      ],
      [
        "ĠF",
        "rench"
      ],
      [
        "oun",
        "ced"
      ],
      [
        "ĠG",
        "u"
      ],
      [
        "Ġpe",
        "ace"
      ],
      [
        "ra",
        "ft"
      ],
      [
        "ĠB",
        "ar"
      ],
      [
        "Ġadvent",
        "ures"
      ],
      [
        "Ġpos",
        "ition"
      ],
      [
        "Ġm",
        "at"
      ],
      [
        "Ġor",
        "ange"
      ],
      [
        "Ġlon",
        "ely"
      ],
      [
        "Ġp",
        "ock"
      ],
      [
        "ut",
        "es"
      ],
      [
        "Ġno",
        "vel"
      ],
      [
        "Ġwelc",
        "ome"
      ],
      [
        "Ġv",
        "ict"
      ],
      [
        "os",
        "s"
      ],
      [
        "Ġdest",
        "roy"
      ],
      [
        "Ġte",
        "levision"
      ],
      [
        "Ġem",
        "b"
      ],
      [
        "v",
        "ely"
      ],
      [
        "Ġfor",
        "get"
      ],
      [
        "oin",
        "ted"
      ],
      [
        "Ġrain",
        "bow"
      ],
      [
        "Ġblank",
        "et"
      ],
      [
        "i",
        "que"
      ],
      [
        "Ġs",
        "uddenly"
      ],
      [
        "Ġl",
        "unch"
      ],
      [
        "Ġv",
        "ol"
      ],
      [
        "Ġatt",
        "ack"
      ],
      [
        "Ġw",
        "ish"
      ],
      [
        "Ġ200",
        "7"
      ],
      [
        "ĠCan",
        "ad"
      ],
      [
        "Ġre",
        "fer"
      ],
      [
        "Ġsound",
        "s"
      ],
      [
        "Ġhum",
        "an"
      ],
      [
        "p",
        "ec"
      ],
      [
        "res",
        "ent"
      ],
      [
        "ĠWh",
        "ile"
      ],
      [
        "Ġcla",
        "pped"
      ],
      [
        "i",
        "k"
      ],
      [
        "ĠN",
        "e"
      ],
      [
        "Ġno",
        "ises"
      ],
      [
        "Ġwr",
        "ite"
      ],
      [
        "Ġh",
        "ours"
      ],
      [
        "Ġsw",
        "ings"
      ],
      [
        "gr",
        "am"
      ],
      [
        "le",
        "br"
      ],
      [
        "Ġbe",
        "e"
      ],
      [
        "Ġauth",
        "or"
      ],
      [
        "ĠD",
        "av"
      ],
      [
        "Ġnot",
        "hing"
      ],
      [
        "Ġar",
        "g"
      ],
      [
        "Ġear",
        "l"
[...]
